{
    "vocab": {
        "0": "Ā",
        "1": "ā",
        "2": "Ă",
        "3": "ă",
        "4": "Ą",
        "5": "ą",
        "6": "Ć",
        "7": "ć",
        "8": "Ĉ",
        "9": "ĉ",
        "10": "Ċ",
        "11": "ċ",
        "12": "Č",
        "13": "č",
        "14": "Ď",
        "15": "ď",
        "16": "Đ",
        "17": "đ",
        "18": "Ē",
        "19": "ē",
        "20": "Ĕ",
        "21": "ĕ",
        "22": "Ė",
        "23": "ė",
        "24": "Ę",
        "25": "ę",
        "26": "Ě",
        "27": "ě",
        "28": "Ĝ",
        "29": "ĝ",
        "30": "Ğ",
        "31": "ğ",
        "32": "Ġ",
        "33": "!",
        "34": "\"",
        "35": "#",
        "36": "$",
        "37": "%",
        "38": "&",
        "39": "'",
        "40": "(",
        "41": ")",
        "42": "*",
        "43": "+",
        "44": ",",
        "45": "-",
        "46": ".",
        "47": "/",
        "48": "0",
        "49": "1",
        "50": "2",
        "51": "3",
        "52": "4",
        "53": "5",
        "54": "6",
        "55": "7",
        "56": "8",
        "57": "9",
        "58": ":",
        "59": ";",
        "60": "<",
        "61": "=",
        "62": ">",
        "63": "?",
        "64": "@",
        "65": "A",
        "66": "B",
        "67": "C",
        "68": "D",
        "69": "E",
        "70": "F",
        "71": "G",
        "72": "H",
        "73": "I",
        "74": "J",
        "75": "K",
        "76": "L",
        "77": "M",
        "78": "N",
        "79": "O",
        "80": "P",
        "81": "Q",
        "82": "R",
        "83": "S",
        "84": "T",
        "85": "U",
        "86": "V",
        "87": "W",
        "88": "X",
        "89": "Y",
        "90": "Z",
        "91": "[",
        "92": "\\",
        "93": "]",
        "94": "^",
        "95": "_",
        "96": "`",
        "97": "a",
        "98": "b",
        "99": "c",
        "100": "d",
        "101": "e",
        "102": "f",
        "103": "g",
        "104": "h",
        "105": "i",
        "106": "j",
        "107": "k",
        "108": "l",
        "109": "m",
        "110": "n",
        "111": "o",
        "112": "p",
        "113": "q",
        "114": "r",
        "115": "s",
        "116": "t",
        "117": "u",
        "118": "v",
        "119": "w",
        "120": "x",
        "121": "y",
        "122": "z",
        "123": "{",
        "124": "|",
        "125": "}",
        "126": "~",
        "127": "ġ",
        "128": "Ģ",
        "129": "ģ",
        "130": "Ĥ",
        "131": "ĥ",
        "132": "Ħ",
        "133": "ħ",
        "134": "Ĩ",
        "135": "ĩ",
        "136": "Ī",
        "137": "ī",
        "138": "Ĭ",
        "139": "ĭ",
        "140": "Į",
        "141": "į",
        "142": "İ",
        "143": "ı",
        "144": "Ĳ",
        "145": "ĳ",
        "146": "Ĵ",
        "147": "ĵ",
        "148": "Ķ",
        "149": "ķ",
        "150": "ĸ",
        "151": "Ĺ",
        "152": "ĺ",
        "153": "Ļ",
        "154": "ļ",
        "155": "Ľ",
        "156": "ľ",
        "157": "Ŀ",
        "158": "ŀ",
        "159": "Ł",
        "160": "ł",
        "161": "¡",
        "162": "¢",
        "163": "£",
        "164": "¤",
        "165": "¥",
        "166": "¦",
        "167": "§",
        "168": "¨",
        "169": "©",
        "170": "ª",
        "171": "«",
        "172": "¬",
        "173": "Ń",
        "174": "®",
        "175": "¯",
        "176": "°",
        "177": "±",
        "178": "²",
        "179": "³",
        "180": "´",
        "181": "µ",
        "182": "¶",
        "183": "·",
        "184": "¸",
        "185": "¹",
        "186": "º",
        "187": "»",
        "188": "¼",
        "189": "½",
        "190": "¾",
        "191": "¿",
        "192": "À",
        "193": "Á",
        "194": "Â",
        "195": "Ã",
        "196": "Ä",
        "197": "Å",
        "198": "Æ",
        "199": "Ç",
        "200": "È",
        "201": "É",
        "202": "Ê",
        "203": "Ë",
        "204": "Ì",
        "205": "Í",
        "206": "Î",
        "207": "Ï",
        "208": "Ð",
        "209": "Ñ",
        "210": "Ò",
        "211": "Ó",
        "212": "Ô",
        "213": "Õ",
        "214": "Ö",
        "215": "×",
        "216": "Ø",
        "217": "Ù",
        "218": "Ú",
        "219": "Û",
        "220": "Ü",
        "221": "Ý",
        "222": "Þ",
        "223": "ß",
        "224": "à",
        "225": "á",
        "226": "â",
        "227": "ã",
        "228": "ä",
        "229": "å",
        "230": "æ",
        "231": "ç",
        "232": "è",
        "233": "é",
        "234": "ê",
        "235": "ë",
        "236": "ì",
        "237": "í",
        "238": "î",
        "239": "ï",
        "240": "ð",
        "241": "ñ",
        "242": "ò",
        "243": "ó",
        "244": "ô",
        "245": "õ",
        "246": "ö",
        "247": "÷",
        "248": "ø",
        "249": "ù",
        "250": "ú",
        "251": "û",
        "252": "ü",
        "253": "ý",
        "254": "þ",
        "255": "ÿ",
        "256": "<|endoftext|>",
        "257": "Ġt",
        "258": "he",
        "259": "Ġa",
        "260": "Ġs",
        "261": "Ġw",
        "262": "Ġthe",
        "263": "nd",
        "264": "ed",
        "265": "Ġb",
        "266": "Ġto",
        "267": "Ġand",
        "268": "Ġh",
        "269": "Ġf",
        "270": "ĠT",
        "271": "in",
        "272": "Ġwa",
        "273": "re",
        "274": "it",
        "275": "ou",
        "276": "Ġl",
        "277": "Ġd",
        "278": "Ġc",
        "279": "Ġp",
        "280": "ay",
        "281": "Ġm",
        "282": "er",
        "283": "Ġwas",
        "284": "ĠThe",
        "285": "om",
        "286": "Ġhe",
        "287": "is",
        "288": "Ġn",
        "289": "im",
        "290": "ar",
        "291": "on",
        "292": "Ġsa",
        "293": "ll",
        "294": "id",
        "295": "Ġha",
        "296": "Ġg",
        "297": "at",
        "298": "ĠS",
        "299": "ing",
        "300": "ot",
        "301": "en",
        "302": "an",
        "303": "le",
        "304": "or",
        "305": "ir",
        "306": "am",
        "307": "et",
        "308": "ĠH",
        "309": "Ġit",
        "310": "Ġth",
        "311": "ig",
        "312": "ĠThey",
        "313": "Ġpl",
        "314": "Ġin",
        "315": "il",
        "316": "ĠHe",
        "317": "Ġ\"",
        "318": "ow",
        "319": "ver",
        "320": "ri",
        "321": "Ġu",
        "322": "ut",
        "323": "Ġplay",
        "324": "ith",
        "325": "Ġsaid",
        "326": "Ġbe",
        "327": "Ġday",
        "328": "Ġwith",
        "329": "pp",
        "330": "On",
        "331": "Ġo",
        "332": "Ġy",
        "333": "oo",
        "334": "ked",
        "335": "Ġr",
        "336": "Ġher",
        "337": "ce",
        "338": "ld",
        "339": "Ġhis",
        "340": "ĠTim",
        "341": "ĠI",
        "342": "ĠShe",
        "343": "Ġst",
        "344": "ke",
        "345": "Ġe",
        "346": "Ġbig",
        "347": "nt",
        "348": "ck",
        "349": "very",
        "350": "Ġyou",
        "351": "st",
        "352": "ve",
        "353": "end",
        "354": "un",
        "355": "Ġhapp",
        "356": "Ġon",
        "357": "all",
        "358": "riend",
        "359": "Ġfriend",
        "360": "Ġthey",
        "361": "ĠL",
        "362": "ily",
        "363": "Ġwe",
        "364": "Ġhad",
        "365": "Ġup",
        "366": "Ġli",
        "367": "Ġnot",
        "368": "her",
        "369": "Ġwant",
        "370": "itt",
        "371": "Ġof",
        "372": "ad",
        "373": "Ġdo",
        "374": "ĠB",
        "375": "se",
        "376": "Ġhappy",
        "377": "ent",
        "378": "Ġvery",
        "379": "ĠM",
        "380": "es",
        "381": "Ġsaw",
        "382": "One",
        "383": "Ġthat",
        "384": "ould",
        "385": "'s",
        "386": "Ġfor",
        "387": "ittle",
        "388": "Ġmom",
        "389": "Ġlittle",
        "390": "Ġso",
        "391": "Ġsh",
        "392": "Ġshe",
        "393": "ime",
        "394": "ch",
        "395": "Ġnam",
        "396": "Ġtime",
        "397": "Ġk",
        "398": "Ġne",
        "399": "ound",
        "400": ".\"",
        "401": "Ġthere",
        "402": "Ġnamed",
        "403": "Ġbo",
        "404": "Ġsm",
        "405": "Ġwere",
        "406": "Ġwanted",
        "407": "ĠLily",
        "408": "Ġfriends",
        "409": "out",
        "410": "ird",
        "411": "Ġbut",
        "412": "ved",
        "413": "ht",
        "414": "!\"",
        "415": "The",
        "416": "ĠTom",
        "417": "Ġbird",
        "418": "el",
        "419": "ake",
        "420": "Ġan",
        "421": "al",
        "422": "Ġtoo",
        "423": "ome",
        "424": "Ġwent",
        "425": "Ġwh",
        "426": "ide",
        "427": "Once",
        "428": "Ġall",
        "429": "ĠIt",
        "430": "Ġhel",
        "431": "ug",
        "432": "ue",
        "433": "Ġhelp",
        "434": "Ġis",
        "435": "Ġloo",
        "436": "ĠA",
        "437": "Ġupon",
        "438": "Ġlo",
        "439": "ter",
        "440": "ry",
        "441": "Ġtoy",
        "442": "ore",
        "443": "Ġfun",
        "444": "ind",
        "445": "get",
        "446": "ill",
        "447": "ame",
        "448": "Ġas",
        "449": "Ġj",
        "450": "ra",
        "451": "Ġat",
        "452": "gether",
        "453": "Ġcat",
        "454": "Ġdid",
        "455": "Ġre",
        "456": "ur",
        "457": "Ġtogether",
        "458": "ack",
        "459": "Ġse",
        "460": "ly",
        "461": "Ġtre",
        "462": "ood",
        "463": "Ġdog",
        "464": "ic",
        "465": "Ġcould",
        "466": "ted",
        "467": "Ġcan",
        "468": "Ġball",
        "469": "ard",
        "470": "Ġgir",
        "471": "Ġtheir",
        "472": "ark",
        "473": "Ġgirl",
        "474": "Ġplayed",
        "475": "ec",
        "476": "my",
        "477": "Ġhim",
        "478": "Ġgo",
        "479": "way",
        "480": "Ġro",
        "481": "?\"",
        "482": "hed",
        "483": "ain",
        "484": "Ġkn",
        "485": "Ġle",
        "486": "Ġout",
        "487": "hen",
        "488": "Ġare",
        "489": "Ġfr",
        "490": "um",
        "491": "'t",
        "492": "Ġthem",
        "493": "Ġboy",
        "494": "Ġsad",
        "495": "ul",
        "496": "ax",
        "497": "Ġtree",
        "498": "other",
        "499": "oug",
        "500": "Ġman",
        "501": "Ġloved",
        "502": "Ġhave",
        "503": "Ġcl",
        "504": "Ġfound",
        "505": "Ġlooked",
        "506": "Ġsp",
        "507": "ĠSue",
        "508": "Ġstar",
        "509": "Ġsc",
        "510": "one",
        "511": "Ġback",
        "512": "own",
        "513": "hing",
        "514": "are",
        "515": "ĠMax",
        "516": "Ġlike",
        "517": "Ġbec",
        "518": "side",
        "519": "ful",
        "520": "Ġme",
        "521": "op",
        "522": "ong",
        "523": "Ġpark",
        "524": "Ġwould",
        "525": "ight",
        "526": "Ġliked",
        "527": "round",
        "528": "ĠOne",
        "529": "elt",
        "530": "Ġfa",
        "531": "Ġmake",
        "532": "Ġcar",
        "533": "ell",
        "534": "ĠBut",
        "535": "Ġfelt",
        "536": "Ġla",
        "537": "ĠW",
        "538": "Ġasked",
        "539": "ĠSam",
        "540": "You",
        "541": "ared",
        "542": "omet",
        "543": "ice",
        "544": "Ġcame",
        "545": "Ġstarted",
        "546": "Ġnew",
        "547": "ag",
        "548": "Ġsee",
        "549": "Ġno",
        "550": "ought",
        "551": "ouse",
        "552": "ĠBen",
        "553": "Ġal",
        "554": "iled",
        "555": "Ġag",
        "556": "Ġother",
        "557": "Ġgood",
        "558": "pot",
        "559": "Ġsomet",
        "560": "Ġsmall",
        "561": "Ġbr",
        "562": "ob",
        "563": "ss",
        "564": "Ġsmiled",
        "565": "ade",
        "566": "ried",
        "567": "ings",
        "568": "Ġsay",
        "569": "Ġfind",
        "570": "Ġwor",
        "571": "Ġaway",
        "572": "Ġex",
        "573": "Ġfrom",
        "574": "Ġthought",
        "575": "Ġmade",
        "576": "ĠSpot",
        "577": "Ġwhat",
        "578": "Ġhome",
        "579": "Ġco",
        "580": "Ġplaying",
        "581": "ened",
        "582": "Ġsomething",
        "583": "ty",
        "584": "Ġput",
        "585": "Ġevery",
        "586": "Ġwal",
        "587": "ach",
        "588": "Ġmu",
        "589": "ia",
        "590": "uc",
        "591": "ook",
        "592": "ie",
        "593": "ny",
        "594": "ĠF",
        "595": "Ġagain",
        "596": "Ġran",
        "597": "Ġdown",
        "598": "ile",
        "599": "dd",
        "600": "arn",
        "601": "Ġtoys",
        "602": "ave",
        "603": "Ġpr",
        "604": "king",
        "605": "Ġscared",
        "606": "Ġsome",
        "607": "Ġtook",
        "608": "Ġlaug",
        "609": "ĠJ",
        "610": "Ġhouse",
        "611": "Ġfl",
        "612": "if",
        "613": "ab",
        "614": "Ġaround",
        "615": "Ġbox",
        "616": "Ġsw",
        "617": "ure",
        "618": "ick",
        "619": "Ġlearn",
        "620": "ep",
        "621": "ret",
        "622": "ish",
        "623": "oud",
        "624": "uck",
        "625": "Ġyour",
        "626": "Ġlived",
        "627": "ĠYou",
        "628": "Ġthings",
        "629": "Ġsun",
        "630": "Ġthen",
        "631": "Ġwill",
        "632": "ew",
        "633": "Ġbl",
        "634": "Ġmy",
        "635": "as",
        "636": "Ġwhen",
        "637": "Ġab",
        "638": "pped",
        "639": ",\"",
        "640": "us",
        "641": "Ġget",
        "642": "ank",
        "643": "Tim",
        "644": "Th",
        "645": "Ġch",
        "646": "Ġlot",
        "647": "ucy",
        "648": "oth",
        "649": "ap",
        "650": "ump",
        "651": "ĠMia",
        "652": "Ġwho",
        "653": "Ġtried",
        "654": "ist",
        "655": "Ġfe",
        "656": "Ġknow",
        "657": "Ġgot",
        "658": "ited",
        "659": "ust",
        "660": "Ġmany",
        "661": "Ġabout",
        "662": "Ġsays",
        "663": "Ġint",
        "664": "ally",
        "665": "nder",
        "666": "Ġred",
        "667": "Ġknew",
        "668": "Ġpret",
        "669": "ive",
        "670": "Ġdec",
        "671": "Lily",
        "672": "ise",
        "673": "ous",
        "674": "Ġany",
        "675": "au",
        "676": "ĠD",
        "677": "ace",
        "678": "Ġcare",
        "679": "Ġmore",
        "680": "Ġpic",
        "681": "qu",
        "682": "fter",
        "683": "Ġbest",
        "684": "ause",
        "685": "Ġop",
        "686": "Ġbecame",
        "687": "ĠLucy",
        "688": "Ġpo",
        "689": "Ġwater",
        "690": "ways",
        "691": "âĢ",
        "692": "fe",
        "693": "Ġhug",
        "694": "Ġlearned",
        "695": "ĠBob",
        "696": "Ġexc",
        "697": "Ġbecause",
        "698": "ite",
        "699": "Ġalways",
        "700": "Ġlook",
        "701": "Ġoutside",
        "702": "Ġinto",
        "703": "Ġroom",
        "704": "Ġboth",
        "705": "Ġun",
        "706": "ided",
        "707": "ĠSo",
        "708": "Ġshow",
        "709": "Ġlaughed",
        "710": "Ġeat",
        "711": "Ġdecided",
        "712": "ĠAnd",
        "713": "Ġgre",
        "714": "Ġho",
        "715": "urp",
        "716": "udd",
        "717": "ant",
        "718": "Ġpe",
        "719": "ers",
        "720": "Ġv",
        "721": "ĠE",
        "722": "ĠMom",
        "723": "Ġjump",
        "724": "nn",
        "725": "Ġlong",
        "726": "Ġone",
        "727": "Ġke",
        "728": "Ġthis",
        "729": "Ġrun",
        "730": "Ġnice",
        "731": "Yes",
        "732": "Ġexcited",
        "733": "Ġfast",
        "734": "They",
        "735": "Tom",
        "736": "Ġfeel",
        "737": "Ġdad",
        "738": "Ġtold",
        "739": "Ġmo",
        "740": "Ġsk",
        "741": "Ġinside",
        "742": "our",
        "743": "Ġam",
        "744": "Ġtr",
        "745": "Ġsl",
        "746": "ull",
        "747": "lew",
        "748": "Ġsor",
        "749": "Ġtake",
        "750": "urpr",
        "751": "Ġrock",
        "752": "iny",
        "753": "Ġpretty",
        "754": "nna",
        "755": "Ġsurpr",
        "756": "Ġgave",
        "757": "Ġeach",
        "758": "Ġgra",
        "759": "imal",
        "760": "ink",
        "761": "Ġanimal",
        "762": "Ġmuch",
        "763": "Ġhow",
        "764": "Wh",
        "765": "Ġstr",
        "766": "Ġold",
        "767": "Ġneed",
        "768": "But",
        "769": "Ġthan",
        "770": "Ġlet",
        "771": "ven",
        "772": "ara",
        "773": "ro",
        "774": "ged",
        "775": "Ġtow",
        "776": "ess",
        "777": "Ġunder",
        "778": "ĠC",
        "779": "Ġsorry",
        "780": "Ġor",
        "781": "Ġwalked",
        "782": "Ġcle",
        "783": "and",
        "784": "ft",
        "785": "Ġta",
        "786": "Ġhand",
        "787": "ge",
        "788": "Ġte",
        "789": "ised",
        "790": "og",
        "791": "Ġfish",
        "792": "urn",
        "793": "urt",
        "794": "Ġkind",
        "795": "ff",
        "796": "Ġclo",
        "797": "ĠHis",
        "798": "Ġwat",
        "799": "ving",
        "800": "Ġhig",
        "801": "Ġanimals",
        "802": "ase",
        "803": "ĠAmy",
        "804": "Ġjust",
        "805": "Ġus",
        "806": "Ġhappened",
        "807": "ched",
        "808": "Ġfood",
        "809": "pl",
        "810": "Ġsky",
        "811": "Ġflow",
        "812": "here",
        "813": "Ġsn",
        "814": "rom",
        "815": "Ġtry",
        "816": "Ġlist",
        "817": "Ġide",
        "818": "ĠWe",
        "819": "Ġnear",
        "820": "gry",
        "821": "Ġdidn",
        "822": "Ġidea",
        "823": "Ġbet",
        "824": "Ġen",
        "825": "able",
        "826": "ate",
        "827": "ine",
        "828": "Ġfi",
        "829": "Ġflew",
        "830": "eci",
        "831": "Ġits",
        "832": "ream",
        "833": "Thank",
        "834": "Ġcareful",
        "835": "Ġshare",
        "836": "Ġcake",
        "837": "ex",
        "838": "Ġheard",
        "839": "Ġbetter",
        "840": "Ġtw",
        "841": "Ġstor",
        "842": "Ġif",
        "843": "ecial",
        "844": "Ġspecial",
        "845": "Ġdan",
        "846": "pec",
        "847": "ber",
        "848": "ion",
        "849": "ĠTh",
        "850": "Ġbear",
        "851": "Ġlots",
        "852": "Ġwind",
        "853": "lf",
        "854": "more",
        "855": "Ġanymore",
        "856": "udden",
        "857": "Ġclean",
        "858": "Ġnever",
        "859": "Ġfo",
        "860": "Ġdon",
        "861": "Mom",
        "862": "Ġgr",
        "863": "Ġbug",
        "864": "Ġtal",
        "865": "ople",
        "866": "Ġcom",
        "867": "Ġhard",
        "868": "Ġbu",
        "869": "Ġend",
        "870": "ĠThen",
        "871": "Ġby",
        "872": "Ġfly",
        "873": "uddenly",
        "874": "Ġmag",
        "875": "ort",
        "876": "Ġturn",
        "877": "Ġfore",
        "878": "Ġover",
        "879": "ĠAnna",
        "880": "ĠEvery",
        "881": "Ġeven",
        "882": "rm",
        "883": "ĊĊ",
        "884": "Ġlove",
        "885": "Ġcol",
        "886": "Ġsafe",
        "887": "Ġpeople",
        "888": "Ġafter",
        "889": "Ġbad",
        "890": "ady",
        "891": "Ġhigh",
        "892": "Ġfam",
        "893": "Ġground",
        "894": "ak",
        "895": "Ġdoor",
        "896": "imb",
        "897": "Ġcome",
        "898": "bb",
        "899": "Ġshiny",
        "900": "Ġproud",
        "901": "As",
        "902": "Ġopened",
        "903": "Ġclimb",
        "904": "uff",
        "905": "Ġhurt",
        "906": "Ġpicked",
        "907": "Ġblue",
        "908": "Ġloud",
        "909": "pected",
        "910": "Let",
        "911": "Ġche",
        "912": "Ġgive",
        "913": "Ġway",
        "914": "Ġsurprised",
        "915": "Ġgl",
        "916": "'m",
        "917": "expected",
        "918": "Ġunexpected",
        "919": "ild",
        "920": "Ġthanked",
        "921": "Ġcu",
        "922": "Ġbook",
        "923": "ummy",
        "924": "ĠWhen",
        "925": "ĠFrom",
        "926": "Ġcall",
        "927": "Ġcolor",
        "928": "ĠHer",
        "929": "Ġfar",
        "930": "arden",
        "931": "Ġgarden",
        "932": "Ġmagic",
        "933": "Ġever",
        "934": "ĠK",
        "935": "Ġpar",
        "936": "ough",
        "937": "kay",
        "938": "Ġim",
        "939": "Ġhugged",
        "940": "Ġstill",
        "941": "Ġplace",
        "942": "No",
        "943": "Ġunt",
        "944": "ool",
        "945": "Ġoff",
        "946": "ĠSara",
        "947": "age",
        "948": "Ġma",
        "949": "Ġsmile",
        "950": "Ġwalk",
        "951": "ture",
        "952": "ĠP",
        "953": "Ġjumped",
        "954": "Ġfamily",
        "955": "ĠIn",
        "956": "Ġuntil",
        "957": "unny",
        "958": "iz",
        "959": "hes",
        "960": "Ġpa",
        "961": "em",
        "962": "Ġshould",
        "963": "Ġqu",
        "964": "Ġnow",
        "965": "ip",
        "966": "Ġkid",
        "967": "ct",
        "968": "Ġstick",
        "969": "itty",
        "970": "Ġstay",
        "971": "Ġstrong",
        "972": "Ġforest",
        "973": "Ġsto",
        "974": "ane",
        "975": "Ġdra",
        "976": "aut",
        "977": "Ġapp",
        "978": "uffy",
        "979": "dy",
        "980": "Ġbro",
        "981": "Ġboat",
        "982": "Ġgreat",
        "983": "Ġsqu",
        "984": "Ġbra",
        "985": "Ġbeaut",
        "986": "Ġtra",
        "987": "xt",
        "988": "Ġnext",
        "989": "Ġjo",
        "990": "Ġhelped",
        "991": "ĠSally",
        "992": "lease",
        "993": "Ġhat",
        "994": "les",
        "995": "Ġhappily",
        "996": "Ġpicture",
        "997": "Ġstory",
        "998": "iful",
        "999": "ies",
        "1000": "Ġbeautiful",
        "1001": "Ġlisten",
        "1002": "ning",
        "1003": "th",
        "1004": "Ġshowed",
        "1005": "Ġwhile",
        "1006": "Ġcalled",
        "1007": "oon",
        "1008": "Ġmet",
        "1009": "Ġclos",
        "1010": "Now",
        "1011": "Ġkids",
        "1012": "pt",
        "1013": "Ġopen",
        "1014": "Ġfrog",
        "1015": "Ġmor",
        "1016": "Ġrem",
        "1017": "luffy",
        "1018": "Ġtown",
        "1019": "Ġsoft",
        "1020": "Ġeveryone",
        "1021": "Can",
        "1022": "It",
        "1023": "ger",
        "1024": "Ġimp",
        "1025": "Ġbeing",
        "1026": "He",
        "1027": "When",
        "1028": "Ġstopped",
        "1029": "Ġad",
        "1030": "rel",
        "1031": "Ġrain",
        "1032": "Ġangry",
        "1033": "by",
        "1034": "Ġyummy",
        "1035": "Ġwatch",
        "1036": "bit",
        "1037": "Ġdoll",
        "1038": "Ġcouldn",
        "1039": "Ġca",
        "1040": "abbit",
        "1041": "vent",
        "1042": "ary",
        "1043": "ĠLet",
        "1044": "ree",
        "1045": "Ġtruck",
        "1046": "Ġde",
        "1047": "ished",
        "1048": "ĠKitty",
        "1049": "Ġmouse",
        "1050": "Ġrabbit",
        "1051": "be",
        "1052": "dded",
        "1053": "Ġate",
        "1054": "ress",
        "1055": "iss",
        "1056": "Ġwo",
        "1057": "ĠFluffy",
        "1058": "Ġlost",
        "1059": "Ġwarm",
        "1060": "Ġslide",
        "1061": "Ġface",
        "1062": "Ġbrave",
        "1063": "Ġgame",
        "1064": "ĠWh",
        "1065": "Ġkeep",
        "1066": "Ġfell",
        "1067": "fore",
        "1068": "Ġleave",
        "1069": "Ġflowers",
        "1070": "Ġtwo",
        "1071": "Ġcook",
        "1072": "owl",
        "1073": "Ġbed",
        "1074": "Ġcry",
        "1075": "Ġpus",
        "1076": "illy",
        "1077": "so",
        "1078": "ock",
        "1079": "Ġsoon",
        "1080": "Ġnoise",
        "1081": "Ġgreen",
        "1082": "Ġalso",
        "1083": "ĠR",
        "1084": "That",
        "1085": "Ġbunny",
        "1086": "ear",
        "1087": "Ġnodded",
        "1088": "Ġwhere",
        "1089": "gan",
        "1090": "self",
        "1091": "Ġfix",
        "1092": "Ġsat",
        "1093": "Ġhaving",
        "1094": "ired",
        "1095": "Hi",
        "1096": "Ġyell",
        "1097": "Ġbefore",
        "1098": "âĢĿ",
        "1099": "Ġkept",
        "1100": "Ġhole",
        "1101": "Ġpain",
        "1102": "âĢľ",
        "1103": "Ġhear",
        "1104": "ble",
        "1105": "day",
        "1106": "Ġstore",
        "1107": "What",
        "1108": "Ġhands",
        "1109": "Ġcatch",
        "1110": "Look",
        "1111": "Ġuse",
        "1112": "irrel",
        "1113": "Then",
        "1114": "Ġsing",
        "1115": "Ġfin",
        "1116": "az",
        "1117": "irst",
        "1118": "Ġused",
        "1119": "Ġmommy",
        "1120": "Ġthr",
        "1121": "Ġexpl",
        "1122": "Ġfunny",
        "1123": "Ġsquirrel",
        "1124": "Ġbirds",
        "1125": "Ben",
        "1126": "ĠNow",
        "1127": "Ġcra",
        "1128": "Ġlooking",
        "1129": "uch",
        "1130": "Ġtired",
        "1131": "Ġey",
        "1132": "Ġgoing",
        "1133": "Ġwait",
        "1134": "Ġbre",
        "1135": "Ġkit",
        "1136": "oy",
        "1137": "eet",
        "1138": "aybe",
        "1139": "leep",
        "1140": "Ġmean",
        "1141": "ange",
        "1142": "thing",
        "1143": "ught",
        "1144": "Ġour",
        "1145": "led",
        "1146": "Ġpull",
        "1147": "air",
        "1148": "Ġdif",
        "1149": "Ġfav",
        "1150": "Ġsunny",
        "1151": "Ġtri",
        "1152": "Ġpond",
        "1153": "ember",
        "1154": "ĠCan",
        "1155": "Ġhas",
        "1156": "chen",
        "1157": "Ġkitchen",
        "1158": "Ġwr",
        "1159": "Ġparty",
        "1160": "Ġthink",
        "1161": "Ġice",
        "1162": "Ġflo",
        "1163": "orn",
        "1164": "oh",
        "1165": "Ġwork",
        "1166": "ting",
        "1167": "ac",
        "1168": "We",
        "1169": "Ġhead",
        "1170": "uit",
        "1171": "Ġbus",
        "1172": "Ġworked",
        "1173": "Ġmess",
        "1174": "Ġdr",
        "1175": "ng",
        "1176": "Ġreal",
        "1177": "ĠDo",
        "1178": "zy",
        "1179": "ious",
        "1180": "ohn",
        "1181": "Ġokay",
        "1182": "Ġothers",
        "1183": "Ġsound",
        "1184": "llow",
        "1185": "Ġmoral",
        "1186": "Ġbeh",
        "1187": "Ġeyes",
        "1188": "ath",
        "1189": "Ġsand",
        "1190": "rew",
        "1191": "Ġtalk",
        "1192": "Ġshared",
        "1193": "Ġadvent",
        "1194": "Ġz",
        "1195": "Ġremember",
        "1196": "ĠâĢľ",
        "1197": "Ġfavor",
        "1198": "joy",
        "1199": "ma",
        "1200": "Ġfavorite",
        "1201": "ello",
        "1202": "Hello",
        "1203": "Ġright",
        "1204": "Ġask",
        "1205": "Ġcuri",
        "1206": "Ġcut",
        "1207": "Ġcold",
        "1208": "Ġri",
        "1209": "Ġhop",
        "1210": "Ġcon",
        "1211": "Ġimport",
        "1212": "Ġhill",
        "1213": "Ġmon",
        "1214": "lly",
        "1215": "Ġdir",
        "1216": "imes",
        "1217": "Ġmaking",
        "1218": "Ġenjoy",
        "1219": "Ġfollow",
        "1220": "Ġcurious",
        "1221": "Ġvo",
        "1222": "Ġpie",
        "1223": "Ġbright",
        "1224": "Ġyard",
        "1225": "ĠG",
        "1226": "At",
        "1227": "Ġflower",
        "1228": "ken",
        "1229": "Don",
        "1230": "Ġsweet",
        "1231": "reed",
        "1232": "Ġmove",
        "1233": "Ġduck",
        "1234": "Ġdis",
        "1235": "Ġrest",
        "1236": "Ġown",
        "1237": "Ġdraw",
        "1238": "Ġfirst",
        "1239": "Ġimportant",
        "1240": "Ġtop",
        "1241": "ĠJack",
        "1242": "Ġsho",
        "1243": "Ġcla",
        "1244": "Ġbegan",
        "1245": "Ġtall",
        "1246": "Ġpick",
        "1247": "Ġblock",
        "1248": "Ġwatched",
        "1249": "ount",
        "1250": "Ġsleep",
        "1251": "Ġbel",
        "1252": "Ġlady",
        "1253": "After",
        "1254": "Ġnight",
        "1255": "Ġthing",
        "1256": "Wow",
        "1257": "ied",
        "1258": "Ġrace",
        "1259": "ster",
        "1260": "Ġtail",
        "1261": "Ġhot",
        "1262": "fere",
        "1263": "Ġhid",
        "1264": "Ġhun",
        "1265": "Ġdiffere",
        "1266": "Ġagreed",
        "1267": "Ġfloor",
        "1268": "Ġshout",
        "1269": "Ġhere",
        "1270": "Ġstop",
        "1271": "ect",
        "1272": "Ġforg",
        "1273": "Ġdark",
        "1274": "ĠThis",
        "1275": "Ġbag",
        "1276": "Ġgrass",
        "1277": "ign",
        "1278": "Ġworry",
        "1279": "Ġsong",
        "1280": "Ġtable",
        "1281": "Ġtast",
        "1282": "Ġtell",
        "1283": "que",
        "1284": "Ġprin",
        "1285": "Ġneeded",
        "1286": "Ġleaves",
        "1287": "aring",
        "1288": "Ġvoice",
        "1289": "Ġyellow",
        "1290": "Ġread",
        "1291": "aper",
        "1292": "Ġfarm",
        "1293": "ĠFin",
        "1294": "Ġru",
        "1295": "Ġtrees",
        "1296": "Ġdress",
        "1297": "Ġhair",
        "1298": "Ġswing",
        "1299": "Why",
        "1300": "Ġdifferent",
        "1301": "Ġdel",
        "1302": "Ġadventure",
        "1303": "Ġwalking",
        "1304": "Ġturned",
        "1305": "Ġsurprise",
        "1306": "Ġplease",
        "1307": "âĢĻ",
        "1308": "ĠMr",
        "1309": "Ġhungry",
        "1310": "Max",
        "1311": "Ġdoes",
        "1312": "Ġcars",
        "1313": "ĠSuddenly",
        "1314": "Ġcolors",
        "1315": "ĠDad",
        "1316": "oom",
        "1317": "Suddenly",
        "1318": "Ġlaugh",
        "1319": "bo",
        "1320": "Sue",
        "1321": "Ġcloser",
        "1322": "ached",
        "1323": "Sam",
        "1324": "Ġpretend",
        "1325": "co",
        "1326": "Ġlion",
        "1327": "ient",
        "1328": "ered",
        "1329": "ila",
        "1330": "Ġbroken",
        "1331": "Ġwood",
        "1332": "Ġprom",
        "1333": "Ġcried",
        "1334": "bye",
        "1335": "Ġwet",
        "1336": "Ġpiece",
        "1337": "Ġfriendly",
        "1338": "ĠTimmy",
        "1339": "Ġfull",
        "1340": "Ġbehind",
        "1341": "Ġtrain",
        "1342": "isy",
        "1343": "Ġdance",
        "1344": "Anna",
        "1345": "ppy",
        "1346": "Ġtouch",
        "1347": "Ġclimbed",
        "1348": "Ġanother",
        "1349": "Ġdanc",
        "1350": "af",
        "1351": "So",
        "1352": "Ġgone",
        "1353": "where",
        "1354": "Ġapple",
        "1355": "Ġsmell",
        "1356": "bbed",
        "1357": "Ġswim",
        "1358": "Ġste",
        "1359": "cked",
        "1360": "Ġblocks",
        "1361": "ater",
        "1362": "Ġfeeling",
        "1363": "sh",
        "1364": "Ġpaper",
        "1365": "ĠThat",
        "1366": "She",
        "1367": "Ġamaz",
        "1368": "ĠAs",
        "1369": "Ġant",
        "1370": "Ġper",
        "1371": "Ġbutter",
        "1372": "Ġrunning",
        "1373": "ĠJane",
        "1374": "Ġreached",
        "1375": "Ġhelping",
        "1376": "Ġlistened",
        "1377": "Ġfair",
        "1378": "iced",
        "1379": "Ġgoodbye",
        "1380": "Ġready",
        "1381": "av",
        "1382": "Ġonly",
        "1383": "Ġhold",
        "1384": "Ġlight",
        "1385": "Ġac",
        "1386": "ray",
        "1387": "aby",
        "1388": "ike",
        "1389": "ĠO",
        "1390": "Ġroll",
        "1391": "Sara",
        "1392": "Ġcream",
        "1393": "ĠBobo",
        "1394": "Ġrepl",
        "1395": "Ġdri",
        "1396": "key",
        "1397": "Ġsit",
        "1398": "Ġpushed",
        "1399": "Ġfight",
        "1400": "Ġslow",
        "1401": "Ġplan",
        "1402": "Ġclose",
        "1403": "red",
        "1404": "ĠAll",
        "1405": "Ġless",
        "1406": "Ġdone",
        "1407": "pe",
        "1408": "Ġwag",
        "1409": "Ġwall",
        "1410": "Ġowl",
        "1411": "Ġcool",
        "1412": "Ġsees",
        "1413": "Ġmust",
        "1414": "Ġglad",
        "1415": "Ġfruit",
        "1416": "Ġwise",
        "1417": "ield",
        "1418": "Ġtiny",
        "1419": "Ġwonder",
        "1420": "Ġmoment",
        "1421": "Ġtrying",
        "1422": "Ġstuck",
        "1423": "ather",
        "1424": "Ġdream",
        "1425": "In",
        "1426": "Ġthrough",
        "1427": "Ġdin",
        "1428": "ash",
        "1429": "Ġwished",
        "1430": "Ġpen",
        "1431": "Ġfire",
        "1432": "ames",
        "1433": "Ġreach",
        "1434": "Ġthank",
        "1435": "Ġbar",
        "1436": "Ġbeen",
        "1437": "Ġbaby",
        "1438": "Ġwindow",
        "1439": "Ġjoin",
        "1440": "Ġexplore",
        "1441": "ott",
        "1442": "Ġlooks",
        "1443": "Ġdoing",
        "1444": "ĠEveryone",
        "1445": "Ġar",
        "1446": "Ġbuy",
        "1447": "Ġbit",
        "1448": "Ġshouted",
        "1449": "Ġair",
        "1450": "Mia",
        "1451": "Ġhide",
        "1452": "Ġbuild",
        "1453": "ĠMommy",
        "1454": "Ġnest",
        "1455": "Ġswam",
        "1456": "Ġscary",
        "1457": "Ġfall",
        "1458": "Ġcoming",
        "1459": "Ġcloud",
        "1460": "Ġland",
        "1461": "Ġbran",
        "1462": "oney",
        "1463": "Ġwin",
        "1464": "Ġblew",
        "1465": "Ġseen",
        "1466": "andy",
        "1467": "Ġperf",
        "1468": "ask",
        "1469": "Ġdirty",
        "1470": "Ġchild",
        "1471": "Ġheld",
        "1472": "Ġbooks",
        "1473": "avy",
        "1474": "ph",
        "1475": "Ġbigger",
        "1476": "Ġreplied",
        "1477": "Ġquick",
        "1478": "Ġleft",
        "1479": "Ġmat",
        "1480": "ely",
        "1481": "Ġunderst",
        "1482": "Ġmight",
        "1483": "Ġtreat",
        "1484": "ndma",
        "1485": "Ġcolorful",
        "1486": "Ġpulled",
        "1487": "Ġgrabbed",
        "1488": "Ġwhy",
        "1489": "Ġturns",
        "1490": "Okay",
        "1491": "Ġdro",
        "1492": "Ġbutterf",
        "1493": "ized",
        "1494": "Ġremembered",
        "1495": "icy",
        "1496": "Ġfill",
        "1497": "Ġname",
        "1498": "ucky",
        "1499": "Ġcup",
        "1500": "Ġchair",
        "1501": "Ġcast",
        "1502": "Ġbroke",
        "1503": "orm",
        "1504": "Ġsometimes",
        "1505": "Ġcount",
        "1506": "aisy",
        "1507": "Ġthree",
        "1508": "Ġsure",
        "1509": "oup",
        "1510": "ation",
        "1511": "Ġspl",
        "1512": "Ġhopped",
        "1513": "Ġpink",
        "1514": "ton",
        "1515": "Ġstayed",
        "1516": "Ġsnow",
        "1517": "Ġjob",
        "1518": "Ġclapped",
        "1519": "up",
        "1520": "Oh",
        "1521": "Ġgames",
        "1522": "der",
        "1523": "Ġbott",
        "1524": "Ġgif",
        "1525": "ee",
        "1526": "Ġwaited",
        "1527": "'re",
        "1528": "ĠThere",
        "1529": "Ġplant",
        "1530": "Ġnoticed",
        "1531": "Ġgrow",
        "1532": "Ġlesson",
        "1533": "Ġballoon",
        "1534": "ix",
        "1535": "Ġanything",
        "1536": "Ġpictures",
        "1537": "Ġwoods",
        "1538": "outh",
        "1539": "Ġmouth",
        "1540": "Ġpaint",
        "1541": "ĠAfter",
        "1542": "uddy",
        "1543": "Ġwaved",
        "1544": "Ġset",
        "1545": "ower",
        "1546": "Ġenjoyed",
        "1547": "room",
        "1548": "Ġspot",
        "1549": "Ġalone",
        "1550": "Ġpot",
        "1551": "Ġcont",
        "1552": "This",
        "1553": "Ġsea",
        "1554": "Ġbrother",
        "1555": "ds",
        "1556": "Ġlikes",
        "1557": "art",
        "1558": "oun",
        "1559": "amp",
        "1560": "Her",
        "1561": "Ġtight",
        "1562": "\".",
        "1563": "Ġyear",
        "1564": "Ġthrew",
        "1565": "Ġheavy",
        "1566": "Ġwhite",
        "1567": "Ġfollowed",
        "1568": "Ġquickly",
        "1569": "Ġgent",
        "1570": "Ġbutterfly",
        "1571": "ins",
        "1572": "Spot",
        "1573": "Ġmiss",
        "1574": "Ġcookies",
        "1575": "ape",
        "1576": "Ġju",
        "1577": "Ġdeep",
        "1578": "asure",
        "1579": "olly",
        "1580": "Ġeverywhere",
        "1581": "de",
        "1582": "Lucy",
        "1583": "ze",
        "1584": "Ġbee",
        "1585": "Ġpat",
        "1586": "oe",
        "1587": "ĠJohn",
        "1588": "ries",
        "1589": "aught",
        "1590": "Ġmar",
        "1591": "Bob",
        "1592": "Ġworld",
        "1593": "ister",
        "1594": "cle",
        "1595": "Ġclot",
        "1596": "Ġwrong",
        "1597": "Ġclothes",
        "1598": "Ġcastle",
        "1599": "Ġcre",
        "1600": "Ġwear",
        "1601": "less",
        "1602": "lc",
        "1603": "Ġpu",
        "1604": "ross",
        "1605": "Ġmum",
        "1606": "Ġbutton",
        "1607": "Ġleaf",
        "1608": "iet",
        "1609": "Ġnap",
        "1610": "ĠBuddy",
        "1611": "Ġve",
        "1612": "ner",
        "1613": "Ġquiet",
        "1614": "Ġmix",
        "1615": "Ġkey",
        "1616": "arent",
        "1617": "Ġmakes",
        "1618": "ang",
        "1619": "Ġbrought",
        "1620": "Ġround",
        "1621": "row",
        "1622": "Ġparent",
        "1623": "ully",
        "1624": "ued",
        "1625": "rot",
        "1626": "Ġwants",
        "1627": "Ġwell",
        "1628": "Ġhimself",
        "1629": "ĠDaisy",
        "1630": "os",
        "1631": "Ġwon",
        "1632": "Ġride",
        "1633": "Ġdelic",
        "1634": "Ġfield",
        "1635": "man",
        "1636": "Ġdanced",
        "1637": "Ġbreak",
        "1638": "Ġarm",
        "1639": "Ġtower",
        "1640": "ĠLila",
        "1641": "Do",
        "1642": "Ġsign",
        "1643": "ĠWhat",
        "1644": "fully",
        "1645": "Ġsnack",
        "1646": "Ġhit",
        "1647": "thy",
        "1648": "Ġdrag",
        "1649": "Ġfaster",
        "1650": "Ġking",
        "1651": "Ġgift",
        "1652": "Ġtalked",
        "1653": "Ġforgot",
        "1654": "Ġwish",
        "1655": "Ġleg",
        "1656": "Ġbeach",
        "1657": "gg",
        "1658": "Ġsister",
        "1659": "Ġriver",
        "1660": "Ġmus",
        "1661": "cess",
        "1662": "ence",
        "1663": "Ġfinished",
        "1664": "Ġbranch",
        "1665": "Ġdry",
        "1666": "Ġcomp",
        "1667": "leph",
        "1668": "ves",
        "1669": "itten",
        "1670": "cy",
        "1671": "Ġsharing",
        "1672": "From",
        "1673": "Ġpol",
        "1674": "Ġbike",
        "1675": "ĠInside",
        "1676": "Ġdinner",
        "1677": "Ġdragon",
        "1678": "Ġfur",
        "1679": "ards",
        "1680": "Ġra",
        "1681": "Ġdanger",
        "1682": "Ġrel",
        "1683": "Ġem",
        "1684": "Ġreally",
        "1685": "Ġbor",
        "1686": "ipp",
        "1687": "Ġvis",
        "1688": "Ġunderstand",
        "1689": "Ġshin",
        "1690": "ance",
        "1691": "ĠTo",
        "1692": "Ġblack",
        "1693": "John",
        "1694": "ren",
        "1695": "Ġbottle",
        "1696": "Ġmonkey",
        "1697": "Ġfox",
        "1698": "His",
        "1699": "eddy",
        "1700": "Ġmonster",
        "1701": "Ġpig",
        "1702": "Ġsmart",
        "1703": "ĠAt",
        "1704": "Ġpoin",
        "1705": "Ġworried",
        "1706": "Ġrocks",
        "1707": "Ġcontin",
        "1708": "Amy",
        "1709": "Ġgu",
        "1710": "Ġcarefully",
        "1711": "Ġbowl",
        "1712": "Ġsomeone",
        "1713": "imi",
        "1714": "ctor",
        "1715": "Ġfairy",
        "1716": "Ġtoday",
        "1717": "Ġatt",
        "1718": "ast",
        "1719": "Ġfilled",
        "1720": "Ġside",
        "1721": "Ġpudd",
        "1722": "Ġeating",
        "1723": "ush",
        "1724": "Ġwelc",
        "1725": "Ġel",
        "1726": "ses",
        "1727": "vel",
        "1728": "Ġgi",
        "1729": "Ġcow",
        "1730": "Ġboun",
        "1731": "itting",
        "1732": "Ġsnake",
        "1733": "Ġbrown",
        "1734": "ead",
        "1735": "Ġwhe",
        "1736": "Ġpromised",
        "1737": "Ġfan",
        "1738": "While",
        "1739": "Ġsilly",
        "1740": "Ġpet",
        "1741": "Ġhappen",
        "1742": "Just",
        "1743": "Ġeverything",
        "1744": "Ġyes",
        "1745": "ts",
        "1746": "Ġres",
        "1747": "Ġparents",
        "1748": "ĠSoon",
        "1749": "ĠMaybe",
        "1750": "Ġsoup",
        "1751": "Ġvisit",
        "1752": "Ġmusic",
        "1753": "Ġmud",
        "1754": "Ġletter",
        "1755": "ated",
        "1756": "Ġfree",
        "1757": "Ġelse",
        "1758": "Ġpieces",
        "1759": "Ġroad",
        "1760": "Ġchildren",
        "1761": "stead",
        "1762": "Ġbite",
        "1763": "Ġshop",
        "1764": "Ġsang",
        "1765": "Ġcontinued",
        "1766": "Fin",
        "1767": "Ġtalking",
        "1768": "Ġperfect",
        "1769": "Ġkite",
        "1770": "zz",
        "1771": "Ġflying",
        "1772": "Ġegg",
        "1773": "Ġsmiles",
        "1774": "Ġthrow",
        "1775": "Ġrealized",
        "1776": "ĠBilly",
        "1777": "Ġmail",
        "1778": "Ġear",
        "1779": "ĠSarah",
        "1780": "ord",
        "1781": "Ġwords",
        "1782": "ĠEm",
        "1783": ".âĢĿ",
        "1784": "Ġamazing",
        "1785": "cket",
        "1786": "Ġlaughing",
        "1787": "Ġjar",
        "1788": "Ġwagged",
        "1789": "Ġorange",
        "1790": "Ġque",
        "1791": "Ġsec",
        "1792": "Ġmoved",
        "1793": "Ġsitting",
        "1794": "Ġenough",
        "1795": "Ġclosed",
        "1796": "ĠZ",
        "1797": "Ġpass",
        "1798": "Ġwithout",
        "1799": "Ġshining",
        "1800": "Ġmother",
        "1801": "gly",
        "1802": "Ġsmo",
        "1803": "Ġstand",
        "1804": "Ġcrab",
        "1805": "Ġbuck",
        "1806": "Ġsail",
        "1807": "Ġrope",
        "1808": "Ġdangerous",
        "1809": "fort",
        "1810": "Ġstrange",
        "1811": "Ġsecret",
        "1812": "Ġbarked",
        "1813": "Ġbath",
        "1814": "Ġstu",
        "1815": "Ġtasty",
        "1816": "Ġdrink",
        "1817": "ĠMimi",
        "1818": "unch",
        "1819": "Ġwelcome",
        "1820": "fish",
        "1821": "ella",
        "1822": "Ġpaw",
        "1823": "used",
        "1824": "iver",
        "1825": "board",
        "1826": "Ġcrying",
        "1827": "Ġwhist",
        "1828": "Ġpast",
        "1829": "Ġheal",
        "1830": "Ġce",
        "1831": "ises",
        "1832": "Ġlon",
        "1833": "Ġcandy",
        "1834": "Ġliving",
        "1835": "ĠJoe",
        "1836": "Ġ-",
        "1837": "Ġhigher",
        "1838": "ches",
        "1839": "Maybe",
        "1840": "Ġlonely",
        "1841": "Ġpre",
        "1842": "Ġowner",
        "1843": "ĠCh",
        "1844": "Ġshoes",
        "1845": "Ġbelie",
        "1846": "Ġsack",
        "1847": "Ġfarmer",
        "1848": "Please",
        "1849": "Ġmorning",
        "1850": "chool",
        "1851": "ato",
        "1852": "arm",
        "1853": "Ġtom",
        "1854": "ĠJen",
        "1855": "gy",
        "1856": "Ġswings",
        "1857": "Ġdelicious",
        "1858": "Ġpurp",
        "1859": "ract",
        "1860": "Ġschool",
        "1861": "llie",
        "1862": "isk",
        "1863": "Ġscream",
        "1864": "Ġteac",
        "1865": "ible",
        "1866": "Ġpush",
        "1867": "Ġfinally",
        "1868": "!âĢĿ",
        "1869": "Ġstone",
        "1870": "Ġrolled",
        "1871": "Ġph",
        "1872": "Ġgrandma",
        "1873": "lephant",
        "1874": "lder",
        "1875": "Mommy",
        "1876": "Ġpuddle",
        "1877": "ich",
        "1878": "Ġstre",
        "1879": "Ġdolls",
        "1880": "me",
        "1881": "ĠBl",
        "1882": "Ġgetting",
        "1883": "Ġblank",
        "1884": "ire",
        "1885": "ama",
        "1886": "Ġpurple",
        "1887": "Ġlake",
        "1888": "Ġasks",
        "1889": "lla",
        "1890": "asket",
        "1891": "Ġyears",
        "1892": "Ġtrou",
        "1893": "Ġshell",
        "1894": "Ġmad",
        "1895": "ased",
        "1896": "Ġcaught",
        "1897": "Ġblanket",
        "1898": "Ġcorn",
        "1899": "set",
        "1900": "Ġtreasure",
        "1901": "Ġwore",
        "1902": "Ġruns",
        "1903": "Ġmoney",
        "1904": "ub",
        "1905": "Ġbasket",
        "1906": "Ġhoped",
        "1907": "ons",
        "1908": "Ġpile",
        "1909": "iskers",
        "1910": "Ġsame",
        "1911": "eo",
        "1912": "Ġsinging",
        "1913": "app",
        "1914": "Ġherself",
        "1915": "ey",
        "1916": "Ġwings",
        "1917": "Ġpers",
        "1918": "Ġapples",
        "1919": "cks",
        "1920": "Ġcute",
        "1921": "Ġben",
        "1922": "br",
        "1923": "Ġmine",
        "1924": "Ġje",
        "1925": "Ġbat",
        "1926": "ĠTommy",
        "1927": "igh",
        "1928": "Ġplane",
        "1929": "Ġgentle",
        "1930": "Ġcarrot",
        "1931": "Ġcray",
        "1932": "ĊĠ",
        "1933": "Ġteacher",
        "1934": "Ġelephant",
        "1935": "Ġcoat",
        "1936": "Ġsear",
        "1937": "Ġpill",
        "1938": "Ġdropped",
        "1939": "Ġballs",
        "1940": "Ġstart",
        "1941": "Ġfit",
        "1942": "Ġteddy",
        "1943": "Ġdays",
        "1944": "thday",
        "1945": "irthday",
        "1946": "Ġcour",
        "1947": "Ġdoctor",
        "1948": "Finally",
        "1949": "ined",
        "1950": "Ġwar",
        "1951": "Ġcourse",
        "1952": "Ġforever",
        "1953": "aughty",
        "1954": "Ġwoke",
        "1955": "Ġjoy",
        "1956": "Ġnaughty",
        "1957": "Ġhiding",
        "1958": "Ġseed",
        "1959": "Ġcard",
        "1960": "Ġpromise",
        "1961": "Ġmin",
        "1962": "Ġbring",
        "1963": "ilk",
        "1964": "ĠWhiskers",
        "1965": "Ġmost",
        "1966": "Ġarri",
        "1967": "Ġteach",
        "1968": "Ġspin",
        "1969": "Ġcookie",
        "1970": "Ġcr",
        "1971": "Ġband",
        "1972": "umpy",
        "1973": "ol",
        "1974": "ator",
        "1975": "Ġshap",
        "1976": "Ġfence",
        "1977": "Ġchee",
        "1978": "Ġrob",
        "1979": "Ġbush",
        "1980": "ĠGra",
        "1981": "ĠBlue",
        "1982": "Ġthinks",
        "1983": "Ġshr",
        "1984": "Ġmilk",
        "1985": "Ġlunch",
        "1986": "Ġugly",
        "1987": "Ġeas",
        "1988": "Ġbirthday",
        "1989": "arp",
        "1990": "Ġnose",
        "1991": "Ġtouc",
        "1992": "ose",
        "1993": "Ġjuice",
        "1994": "ĠThank",
        "1995": "Ġvill",
        "1996": "Ġob",
        "1997": "Ġgrew",
        "1998": "Ġbow",
        "1999": "Ġpop",
        "2000": "Ġbelong",
        "2001": "sw",
        "2002": "Ġshapes",
        "2003": "Ġansw",
        "2004": "fused",
        "2005": "itch",
        "2006": "ipped",
        "2007": "Ġsharp",
        "2008": "ĠFred",
        "2009": "ass",
        "2010": "ail",
        "2011": "Ġcreat",
        "2012": "Ġyoung",
        "2013": "Ġheart",
        "2014": "umber",
        "2015": "sy",
        "2016": "irt",
        "2017": "Ġbench",
        "2018": "ier",
        "2019": "Ġstreet",
        "2020": "ĠBella",
        "2021": "bow",
        "2022": "'ll",
        "2023": "ĠLeo",
        "2024": "Ġseem",
        "2025": "Jack",
        "2026": "Ġbone",
        "2027": "erry",
        "2028": "Ġwra",
        "2029": "Ġmark",
        "2030": "Ġlate",
        "2031": "Ġable",
        "2032": "sc",
        "2033": "eter",
        "2034": "ball",
        "2035": "ale",
        "2036": "Ġbelieve",
        "2037": "Ġrocket",
        "2038": "Ġzoom",
        "2039": "Ġbucket",
        "2040": "Ġcoin",
        "2041": "Ġbread",
        "2042": "Ġrobot",
        "2043": "Ġpocket",
        "2044": "Ġpower",
        "2045": "Ġmagical",
        "2046": "Ġdirt",
        "2047": "Ġtouched",
        "2048": "Ġspoon",
        "2049": "Ġshy",
        "2050": "Ġkiss",
        "2051": "Ġinc",
        "2052": "Ġslowly",
        "2053": "Ġshook",
        "2054": "Ġbusy",
        "2055": "Ġtwins",
        "2056": "Ġkitten",
        "2057": "Ġprob",
        "2058": "Ġcheered",
        "2059": "Ġarrived",
        "2060": "Ġshake",
        "2061": "Ġfeels",
        "2062": "Ġlem",
        "2063": "Ġcraw",
        "2064": "Ġseat",
        "2065": "Ġneck",
        "2066": "Ġcarry",
        "2067": "Ġtrip",
        "2068": "Ġstorm",
        "2069": "ling",
        "2070": "Ġamazed",
        "2071": "ung",
        "2072": "Ġspo",
        "2073": "Ġfew",
        "2074": "eared",
        "2075": "Ġvillage",
        "2076": "igg",
        "2077": "OK",
        "2078": "Ġbell",
        "2079": "lem",
        "2080": "idge",
        "2081": "Ġtaking",
        "2082": "Ġstories",
        "2083": "Ġpatient",
        "2084": "Ġgrumpy",
        "2085": "Ġfixed",
        "2086": "Ġcoll",
        "2087": "oose",
        "2088": "Ġproblem",
        "2089": "Ġnut",
        "2090": "urtle",
        "2091": "ost",
        "2092": "Ġwheel",
        "2093": "Good",
        "2094": "Ġsounds",
        "2095": "Ġwonderful",
        "2096": "Ġlive",
        "2097": "Ġgray",
        "2098": "Ġdist",
        "2099": "irp",
        "2100": "Ġrainbow",
        "2101": "una",
        "2102": "Ġwave",
        "2103": "Ġtowards",
        "2104": "Ġsug",
        "2105": "Ġhuge",
        "2106": "Ġspark",
        "2107": "Ġrude",
        "2108": "Ġdriver",
        "2109": "Ġhor",
        "2110": "Ġcover",
        "2111": "ors",
        "2112": "fortable",
        "2113": "Ġwhistle",
        "2114": "Ġsongs",
        "2115": "Ġcart",
        "2116": "ĠMark",
        "2117": "Ġcir",
        "2118": "emy",
        "2119": "Ġwide",
        "2120": "ĠMomo",
        "2121": "Ġsal",
        "2122": "epend",
        "2123": "Lila",
        "2124": "Ġrec",
        "2125": "Ġdes",
        "2126": "unt",
        "2127": "ens",
        "2128": "Ġstring",
        "2129": "Ġdisapp",
        "2130": "kin",
        "2131": "elly",
        "2132": "bble",
        "2133": "Ġtreats",
        "2134": "Ġsuc",
        "2135": "pping",
        "2136": "Ġpath",
        "2137": "Ġmeet",
        "2138": "iling",
        "2139": "Ġupset",
        "2140": "Ġholding",
        "2141": "Ġcheese",
        "2142": "alm",
        "2143": "Ġmoon",
        "2144": "oph",
        "2145": "Be",
        "2146": "Ġturtle",
        "2147": "Ġworm",
        "2148": "Ġwild",
        "2149": "Of",
        "2150": "ourn",
        "2151": "Sure",
        "2152": "Ġlay",
        "2153": "Ġhugs",
        "2154": "ĠN",
        "2155": "Ġgrab",
        "2156": "Ġfighting",
        "2157": "Ġlife",
        "2158": "Ġgiant",
        "2159": "Ġdi",
        "2160": "Ġpuppy",
        "2161": "Ġpeace",
        "2162": "Ġjourn",
        "2163": "Ġbugs",
        "2164": "umb",
        "2165": "ring",
        "2166": "Ġsmooth",
        "2167": "Ġjew",
        "2168": "adow",
        "2169": "Ġnote",
        "2170": "Ġjoke",
        "2171": "Ġban",
        "2172": "Ġnoises",
        "2173": "Ġjewel",
        "2174": "Ġcloth",
        "2175": "ĠJust",
        "2176": "ĠEmma",
        "2177": "Ġsmelly",
        "2178": "Ġsour",
        "2179": "Ġmist",
        "2180": "Ġhoney",
        "2181": "ountain",
        "2182": "Ġlucky",
        "2183": "Ġinv",
        "2184": "Ġser",
        "2185": "Ġlanded",
        "2186": "Ġcou",
        "2187": "ular",
        "2188": "izzy",
        "2189": "onest",
        "2190": "ĠOn",
        "2191": "pper",
        "2192": "Ġnet",
        "2193": "St",
        "2194": "Ġthin",
        "2195": "Ġrad",
        "2196": "Ġcave",
        "2197": "aur",
        "2198": "Ġprincess",
        "2199": "Ġhonest",
        "2200": "Ġbeak",
        "2201": "ĠAnn",
        "2202": "not",
        "2203": "ife",
        "2204": "Ġjelly",
        "2205": "Ġdrive",
        "2206": "Ġboss",
        "2207": "isa",
        "2208": "Ġpart",
        "2209": "Ġchew",
        "2210": "Ġbanan",
        "2211": "ery",
        "2212": "Ġseek",
        "2213": "Ġcannot",
        "2214": "Ġmissed",
        "2215": "Ġact",
        "2216": "ĠMolly",
        "2217": "Ġstars",
        "2218": "Ġmed",
        "2219": "Ġba",
        "2220": "ove",
        "2221": "Ġdogs",
        "2222": "read",
        "2223": "Ġsuddenly",
        "2224": "Ġsick",
        "2225": "Ġign",
        "2226": "sp",
        "2227": "Ġoven",
        "2228": "Ġdrove",
        "2229": "lower",
        "2230": "Ġbri",
        "2231": "Ġtea",
        "2232": "Ġstep",
        "2233": "Ġsplas",
        "2234": "ĠFinally",
        "2235": "Ġshelf",
        "2236": "iger",
        "2237": "Ġexp",
        "2238": "Ġsnowman",
        "2239": "Ġwasn",
        "2240": "Ġinstead",
        "2241": "Hey",
        "2242": "Ġtaste",
        "2243": "Ġfoot",
        "2244": "Ġfle",
        "2245": "ĠDog",
        "2246": "Ġmaybe",
        "2247": "Ġducks",
        "2248": "ope",
        "2249": "ert",
        "2250": "Later",
        "2251": "Ġsel",
        "2252": "Ġacross",
        "2253": "ateful",
        "2254": "Ġsandw",
        "2255": "Ġhelpful",
        "2256": "Ġfancy",
        "2257": "Ġadventures",
        "2258": "est",
        "2259": "Ġbought",
        "2260": "Ġwash",
        "2261": "Ġorgan",
        "2262": "ian",
        "2263": "ere",
        "2264": "Ġcross",
        "2265": "To",
        "2266": "Ġline",
        "2267": "Ġglow",
        "2268": "ĠRemy",
        "2269": "Ġgrateful",
        "2270": "Ġcomes",
        "2271": "Ġslid",
        "2272": "Ġforget",
        "2273": "Ġconfused",
        "2274": "Ġash",
        "2275": "let",
        "2276": "idy",
        "2277": "Ġspe",
        "2278": "Ġpuzz",
        "2279": "Ġpillow",
        "2280": "Ġhealthy",
        "2281": "Ġchange",
        "2282": "Ġpract",
        "2283": "Ġdish",
        "2284": "Ġzoo",
        "2285": "ĠOllie",
        "2286": "oomy",
        "2287": "oppy",
        "2288": "Ġval",
        "2289": "Ġstepped",
        "2290": "erest",
        "2291": "Ġlast",
        "2292": "Ġlad",
        "2293": "Ġinterest",
        "2294": "Ġcap",
        "2295": "Ġselfish",
        "2296": "Ġelder",
        "2297": "Ġcho",
        "2298": "ity",
        "2299": "Ġworking",
        "2300": "Ġwhole",
        "2301": "Ġelderly",
        "2302": "Ġeasy",
        "2303": "ward",
        "2304": "Ġwatching",
        "2305": "Ġsticks",
        "2306": "Ġhope",
        "2307": "Ġanyone",
        "2308": "col",
        "2309": "Ġmessy",
        "2310": "Ġcalm",
        "2311": "amed",
        "2312": "Ġtakes",
        "2313": "Ġsave",
        "2314": "Ġpri",
        "2315": "Ġforgive",
        "2316": "Ġdaddy",
        "2317": "Ġchased",
        "2318": "ize",
        "2319": "irpy",
        "2320": "Ġweak",
        "2321": "Ġteam",
        "2322": "Ġmyster",
        "2323": "Ġav",
        "2324": "Ġwrite",
        "2325": "Ġshirt",
        "2326": "Ġladder",
        "2327": "oc",
        "2328": "Ġwolf",
        "2329": "Ġtape",
        "2330": "to",
        "2331": "pect",
        "2332": "Ġsplash",
        "2333": "Ġlemon",
        "2334": "Ġlegs",
        "2335": "Ġclever",
        "2336": "ĠSp",
        "2337": "Ġphone",
        "2338": "Ġmind",
        "2339": "Ġhorse",
        "2340": "Ġfeather",
        "2341": "Ġplants",
        "2342": "Ġperson",
        "2343": "Ġlonger",
        "2344": "ider",
        "2345": "Ġtidy",
        "2346": "Ġstret",
        "2347": "Ġprot",
        "2348": "Ġpour",
        "2349": "Ġjog",
        "2350": "ork",
        "2351": "ever",
        "2352": "Ġemp",
        "2353": "izz",
        "2354": "Soon",
        "2355": "Ġpan",
        "2356": "Ġlater",
        "2357": "Ġempty",
        "2358": "Ġbark",
        "2359": "Ġalong",
        "2360": "ĠCat",
        "2361": "Sally",
        "2362": "Ġseemed",
        "2363": "Ġfaces",
        "2364": "Ġboot",
        "2365": "ĠBu",
        "2366": "Ġpretended",
        "2367": "Ġlock",
        "2368": "Ġcozy",
        "2369": "bbles",
        "2370": "Ġsleepy",
        "2371": "Ġlift",
        "2372": "ions",
        "2373": "Ġhum",
        "2374": "iting",
        "2375": "Ġwaiting",
        "2376": "Ġstir",
        "2377": "Ġsaved",
        "2378": "Ġsu",
        "2379": "Ġfinish",
        "2380": "llo",
        "2381": "Ġswimm",
        "2382": "Ġmach",
        "2383": "pill",
        "2384": "pillar",
        "2385": "Come",
        "2386": "Ġret",
        "2387": "ually",
        "2388": "ained",
        "2389": "?âĢĿ",
        "2390": "Ġspicy",
        "2391": "Ġcheer",
        "2392": "Ġchick",
        "2393": "Ġbounce",
        "2394": "ĠCome",
        "2395": "Ġscreamed",
        "2396": "Ġreturn",
        "2397": "Ġring",
        "2398": "Ġgoat",
        "2399": "ĠLisa",
        "2400": "Ġent",
        "2401": "ult",
        "2402": "Ġpool",
        "2403": "Ġfake",
        "2404": "ĠChirpy",
        "2405": "den",
        "2406": "Ġjumping",
        "2407": "ĠDaddy",
        "2408": "Ġsupp",
        "2409": "Ġsuch",
        "2410": "Ġinteresting",
        "2411": "Ġwondered",
        "2412": "Ġtie",
        "2413": "Ġclouds",
        "2414": "Ġprint",
        "2415": "Ġpin",
        "2416": "Ġmistake",
        "2417": "Ġfruits",
        "2418": "ĠDucky",
        "2419": "unk",
        "2420": "Ġdrank",
        "2421": "ocked",
        "2422": "Ġspray",
        "2423": "erpillar",
        "2424": "Ġthough",
        "2425": "Ġplate",
        "2426": "Ġeag",
        "2427": "Ġcaterpillar",
        "2428": "Ġstra",
        "2429": "Ġbossy",
        "2430": "ĠTogether",
        "2431": "issors",
        "2432": "dge",
        "2433": "box",
        "2434": "Ġonto",
        "2435": "Ġgather",
        "2436": "eth",
        "2437": "Ġkick",
        "2438": "Ġdrew",
        "2439": "Ġbuilding",
        "2440": "ĠBenny",
        "2441": "Ġswimming",
        "2442": "Ġscissors",
        "2443": "Ġmachine",
        "2444": "lebr",
        "2445": "Ġrich",
        "2446": "ĠWith",
        "2447": "ĠTV",
        "2448": "ormal",
        "2449": "Ġsheep",
        "2450": "Ġnumber",
        "2451": "Ġhidden",
        "2452": "Ġgives",
        "2453": "Ġcelebr",
        "2454": "ĠSt",
        "2455": "ĠElla",
        "2456": "ont",
        "2457": "Ġnormal",
        "2458": "oof",
        "2459": "ek",
        "2460": "Ġwing",
        "2461": "Ġbrush",
        "2462": "Kitty",
        "2463": "Ġlovely",
        "2464": "Ġfurry",
        "2465": "Ġexplor",
        "2466": "Ġcrayons",
        "2467": "Ġcleaned",
        "2468": "Ġarms",
        "2469": "Ġtrouble",
        "2470": "Ġglue",
        "2471": "Ġfront",
        "2472": "ment",
        "2473": "izza",
        "2474": "aced",
        "2475": "Ġspider",
        "2476": "Ġpenc",
        "2477": "Ġpack",
        "2478": "Ġfing",
        "2479": "Ġcher",
        "2480": "ĠMy",
        "2481": "Ġsugar",
        "2482": "Ġpointed",
        "2483": "Ġpencil",
        "2484": "Ġmatch",
        "2485": "Ġlar",
        "2486": "Ġcage",
        "2487": "ĠDoggy",
        "2488": "elp",
        "2489": "Ġmel",
        "2490": "Ġappeared",
        "2491": "ĠTheir",
        "2492": "ĠBunny",
        "2493": "urse",
        "2494": "Ġputs",
        "2495": "Ġsmelled",
        "2496": "Ġprince",
        "2497": "osaur",
        "2498": "oop",
        "2499": "ned",
        "2500": "Ġsur",
        "2501": "Ġpray",
        "2502": "Ġgently",
        "2503": "Ġgate",
        "2504": "ĠLuna",
        "2505": "ĠGrandma",
        "2506": "yard",
        "2507": "Ġsearch",
        "2508": "Ġmatter",
        "2509": "Ġdinosaur",
        "2510": "Ġbackyard",
        "2511": "And",
        "2512": "Ġfear",
        "2513": "Ġfil",
        "2514": "Ġdrum",
        "2515": "pa",
        "2516": "Ġship",
        "2517": "Ġclass",
        "2518": "Ġtowel",
        "2519": "Ġqueen",
        "2520": "Ġgun",
        "2521": "Ġcircle",
        "2522": "Ġvan",
        "2523": "Ġsmiling",
        "2524": "Ġcouch",
        "2525": "ĠGo",
        "2526": "aughter",
        "2527": "Ġtear",
        "2528": "Ġnearby",
        "2529": "Ġimag",
        "2530": "Ġicy",
        "2531": "Ġyelled",
        "2532": "Ġashamed",
        "2533": "Ġpowerful",
        "2534": "gest",
        "2535": "Ġwand",
        "2536": "Ġquest",
        "2537": "Ġplaces",
        "2538": "Ġflag",
        "2539": "Ġcri",
        "2540": "ĠSomet",
        "2541": "ĠJerry",
        "2542": "Help",
        "2543": "Ġlaw",
        "2544": "lev",
        "2545": "Ġwom",
        "2546": "Ġlamp",
        "2547": "Ġaf",
        "2548": "ĠWhy",
        "2549": "orrow",
        "2550": "icked",
        "2551": "Ġwoman",
        "2552": "Ġpizza",
        "2553": "Ġmir",
        "2554": "Ġlarge",
        "2555": "Ġdaughter",
        "2556": "Ġcarried",
        "2557": "ĠMama",
        "2558": "My",
        "2559": "Ġwrap",
        "2560": "Ġtrust",
        "2561": "Ġjourney",
        "2562": "Ġglass",
        "2563": "Ġap",
        "2564": "ym",
        "2565": "Stop",
        "2566": "Ġtrue",
        "2567": "Ġrub",
        "2568": "Ġneigh",
        "2569": "Ġgas",
        "2570": "ĠJim",
        "2571": "vous",
        "2572": "ror",
        "2573": "ones",
        "2574": "Ġtries",
        "2575": "Ġneighb",
        "2576": "Ġbal",
        "2577": "ique",
        "2578": "Ġunique",
        "2579": "Ġjeep",
        "2580": "Ġignor",
        "2581": "Ġemb",
        "2582": "ĠJill",
        "2583": "isp",
        "2584": "ensive",
        "2585": "Ġwearing",
        "2586": "Ġfright",
        "2587": "Ġexpensive",
        "2588": "Ġtomorrow",
        "2589": "Ġhur",
        "2590": "Ġgoes",
        "2591": "ĠIf",
        "2592": "itter",
        "2593": "Ġloves",
        "2594": "Ġdizzy",
        "2595": "ĠBe",
        "2596": "ced",
        "2597": "Ġweird",
        "2598": "Ġsaf",
        "2599": "Ġdig",
        "2600": "Ġants",
        "2601": "ugg",
        "2602": "raid",
        "2603": "Ġthese",
        "2604": "Ġmirror",
        "2605": "Ġhello",
        "2606": "Ġdancing",
        "2607": "Ġchase",
        "2608": "ĠBobby",
        "2609": "Ġspring",
        "2610": "Ġreg",
        "2611": "Ġafraid",
        "2612": "Ġscar",
        "2613": "Ġnothing",
        "2614": "ĠBr",
        "2615": "rass",
        "2616": "arrass",
        "2617": "Ġpoor",
        "2618": "Ġfrightened",
        "2619": "ĠTiny",
        "2620": "ndpa",
        "2621": "mer",
        "2622": "kn",
        "2623": "Ġwhisp",
        "2624": "Ġtest",
        "2625": "Ġner",
        "2626": "Ġlazy",
        "2627": "Ġembarrass",
        "2628": "Ġeager",
        "2629": "Ġcand",
        "2630": "iff",
        "2631": "Ġprotect",
        "2632": "aw",
        "2633": "Ġtomato",
        "2634": "Ġstood",
        "2635": "Ġdest",
        "2636": "ness",
        "2637": "known",
        "2638": "Ġsuccess",
        "2639": "Ġnervous",
        "2640": "bby",
        "2641": "Ġsplashed",
        "2642": "Ġpuzzle",
        "2643": "Ġbridge",
        "2644": "Ġwis",
        "2645": "Ġwip",
        "2646": "Ġunknown",
        "2647": "Ġpay",
        "2648": "Ġclay",
        "2649": "Ġbake",
        "2650": "Ġincred",
        "2651": "Ġimpress",
        "2652": "Ġgold",
        "2653": "Ġgigg",
        "2654": "Ġgen",
        "2655": "Ġdecor",
        "2656": "Ġcreative",
        "2657": "ventually",
        "2658": "ina",
        "2659": "Ġfeet",
        "2660": "era",
        "2661": "Ġincredible",
        "2662": "ĠRex",
        "2663": "Ġtent",
        "2664": "Ġsol",
        "2665": "Ġsock",
        "2666": "Ġsandwich",
        "2667": "Ġlead",
        "2668": "Ġteeth",
        "2669": "Ġswan",
        "2670": "any",
        "2671": "Ġuseful",
        "2672": "Ġclock",
        "2673": "ĠMary",
        "2674": "ĠHow",
        "2675": "ute",
        "2676": "ual",
        "2677": "Ġsteak",
        "2678": "Ġrespect",
        "2679": "Ġboring",
        "2680": "ĠBird",
        "2681": "ĠBear",
        "2682": "berry",
        "2683": "Ġstraw",
        "2684": "Ġsquare",
        "2685": "Ġsoap",
        "2686": "Ġdisco",
        "2687": "lves",
        "2688": "Ġpres",
        "2689": "Ġmixed",
        "2690": "Ġfool",
        "2691": "Ġcloset",
        "2692": "owed",
        "2693": "Ġpotato",
        "2694": "Ġpeaceful",
        "2695": "Ġpump",
        "2696": "Ġmask",
        "2697": "Ġknocked",
        "2698": "cream",
        "2699": "airs",
        "2700": "Ġwhale",
        "2701": "Ġsword",
        "2702": "Ġmysterious",
        "2703": "Ġfamous",
        "2704": "Ġburn",
        "2705": "upid",
        "2706": "Tommy",
        "2707": "Ġhar",
        "2708": "Ġgener",
        "2709": "Ġbean",
        "2710": "ĠAndy",
        "2711": "we",
        "2712": "rated",
        "2713": "Ġyog",
        "2714": "Ġsold",
        "2715": "Ġshark",
        "2716": "Ġanswer",
        "2717": "Ġ3",
        "2718": "Ġsco",
        "2719": "cient",
        "2720": "bled",
        "2721": "arl",
        "2722": "Ġwouldn",
        "2723": "Ġrug",
        "2724": "Ġpolite",
        "2725": "Ġkicked",
        "2726": "Ġfeed",
        "2727": "ĠPlease",
        "2728": "erri",
        "2729": "com",
        "2730": "Ġsnacks",
        "2731": "Ġmeasure",
        "2732": "Ġjam",
        "2733": "Ġdisg",
        "2734": "Ġancient",
        "2735": "Ġrelie",
        "2736": "Ġcorner",
        "2737": "Ġblow",
        "2738": "ond",
        "2739": "Ġspace",
        "2740": "Ġnoisy",
        "2741": "Ġesc",
        "2742": "reen",
        "2743": "ote",
        "2744": "imp",
        "2745": "Ġspread",
        "2746": "Ġscarf",
        "2747": "Ġbranches",
        "2748": "ormous",
        "2749": "Ġstupid",
        "2750": "Ġpainted",
        "2751": "Ġchocol",
        "2752": "ĠDon",
        "2753": "rob",
        "2754": "Ġshoe",
        "2755": "Ġrough",
        "2756": "Ġmarch",
        "2757": "Ġeggs",
        "2758": "Ġwagon",
        "2759": "Ġpaws",
        "2760": "uce",
        "2761": "Ġstudy",
        "2762": "Ġmoms",
        "2763": "Ġfrust",
        "2764": "Ġdisgust",
        "2765": "Ġdead",
        "2766": "Ġdug",
        "2767": "Ġcrown",
        "2768": "robe",
        "2769": "Ġterri",
        "2770": "Ġfoolish",
        "2771": "Ġbarn",
        "2772": "ĠSometimes",
        "2773": "enny",
        "2774": "Dad",
        "2775": "Ġsteal",
        "2776": "Ġsell",
        "2777": "Ġrare",
        "2778": "Ġpresent",
        "2779": "Ġmis",
        "2780": "Ġenormous",
        "2781": "getable",
        "2782": "Ġvegetable",
        "2783": "Ġunderstood",
        "2784": "Ġscare",
        "2785": "Ġsalad",
        "2786": "Ġmedic",
        "2787": "Ġdisgusting",
        "2788": "Ġchocolate",
        "2789": "Ġbanana",
        "2790": "Ġbald",
        "2791": "ighed",
        "2792": "edient",
        "2793": "corn",
        "2794": "ado",
        "2795": "Ġstuff",
        "2796": "Ġmedicine",
        "2797": "Ġhero",
        "2798": "Ġgenerous",
        "2799": "Ġclap",
        "2800": "fic",
        "2801": "Ġgroup",
        "2802": "Ġgoose",
        "2803": "Ġdiffic",
        "2804": "Ġbitter",
        "2805": "pes",
        "2806": "Ġthick",
        "2807": "Ġroar",
        "2808": "Ġperform",
        "2809": "Ġmush",
        "2810": "Ġfrustrated",
        "2811": "Ġdifficult",
        "2812": "Ġbreath",
        "2813": "ĠSammy",
        "2814": "ĠInstead",
        "2815": "Ġtick",
        "2816": "Ġsmaller",
        "2817": "Ġshadow",
        "2818": "Ġmelon",
        "2819": "Ġmarket",
        "2820": "Ġcovered",
        "2821": "ĠPe",
        "2822": "uitar",
        "2823": "Ġtasted",
        "2824": "Ġord",
        "2825": "Ġobedient",
        "2826": "Ġguitar",
        "2827": "roy",
        "2828": "port",
        "2829": "orry",
        "2830": "mb",
        "2831": "Ġwake",
        "2832": "alk",
        "2833": "Ġlab",
        "2834": "Ġhang",
        "2835": "Ġhorn",
        "2836": "Ġdestroy",
        "2837": "ĠSome",
        "2838": "inal",
        "2839": "asses",
        "2840": "Ġtoug",
        "2841": "Ġref",
        "2842": "Ġmountain",
        "2843": "Ġmot",
        "2844": "Ġbored",
        "2845": "Ġasleep",
        "2846": "aking",
        "2847": "Timmy",
        "2848": "Ġwhich",
        "2849": "Ġtaught",
        "2850": "Ġstanding",
        "2851": "usual",
        "2852": "land",
        "2853": "Ġrelieved",
        "2854": "Ġharm",
        "2855": "Ġbecome",
        "2856": "ĠBrown",
        "2857": "Ġtough",
        "2858": "Ġterrible",
        "2859": "Ġsuit",
        "2860": "Ġjoined",
        "2861": "ungle",
        "2862": "atter",
        "2863": "alous",
        "2864": "Ġsquash",
        "2865": "Ġpebble",
        "2866": "Ġmushroom",
        "2867": "Ġmoving",
        "2868": "Ġjealous",
        "2869": "Ġexploring",
        "2870": "iginal",
        "2871": "fted",
        "2872": "als",
        "2873": "Ġyourself",
        "2874": "Ġparrot",
        "2875": "Ġknife",
        "2876": "Ġjungle",
        "2877": "Ġadm",
        "2878": "Together",
        "2879": "Here",
        "2880": "Ġunusual",
        "2881": "Ġtun",
        "2882": "Ġpumpkin",
        "2883": "Ġdiscover",
        "2884": "Ġclear",
        "2885": "Ġasking",
        "2886": "Ġspoiled",
        "2887": "Ġprize",
        "2888": "Ġdull",
        "2889": "ulb",
        "2890": "atch",
        "2891": "Ġsunf",
        "2892": "Ġfat",
        "2893": "Ġchicken",
        "2894": "Ġtiger",
        "2895": "Ġpopcorn",
        "2896": "Ġnuts",
        "2897": "Ġmighty",
        "2898": "Ġthoughtful",
        "2899": "Ġhears",
        "2900": "Ġfine",
        "2901": "Ġcomb",
        "2902": "Ġbulb",
        "2903": "ume",
        "2904": "mp",
        "2905": "ident",
        "2906": "Ġvase",
        "2907": "Ġtwist",
        "2908": "Ġtool",
        "2909": "Ġstri",
        "2910": "Ġseeds",
        "2911": "Ġsque",
        "2912": "Ġhay",
        "2913": "ĠPoppy",
        "2914": "rag",
        "2915": "erce",
        "2916": "Ġoriginal",
        "2917": "Ġfierce",
        "2918": "Ġdrop",
        "2919": "Ġind",
        "2920": "Ġsnee",
        "2921": "Ġending",
        "2922": "Ġdrawing",
        "2923": "Ġcop",
        "2924": "ĠWill",
        "2925": "Ġthankful",
        "2926": "Ġisland",
        "2927": "Ġcarrots",
        "2928": "umsy",
        "2929": "Inside",
        "2930": "Ġspent",
        "2931": "Ġrelax",
        "2932": "Ġmuff",
        "2933": "Ġembarrassed",
        "2934": "Ġcheap",
        "2935": "Ġcro",
        "2936": "selves",
        "2937": "Ġtroubled",
        "2938": "Ġmic",
        "2939": "Ġknowing",
        "2940": "Ġfold",
        "2941": "Ġeng",
        "2942": "Ġclown",
        "2943": "Ġbloom",
        "2944": "Ġaunt",
        "2945": "oto",
        "2946": "comfortable",
        "2947": "Are",
        "2948": "Ġtemp",
        "2949": "Ġsunflower",
        "2950": "Ġrecord",
        "2951": "Ġfrown",
        "2952": "Ġfinding",
        "2953": "Ġbalance",
        "2954": "ĠTr",
        "2955": "Ġuncomfortable",
        "2956": "Ġlose",
        "2957": "Ġhats",
        "2958": "Ġchest",
        "2959": "ĠMany",
        "2960": "Ġ'",
        "2961": "ser",
        "2962": "irsty",
        "2963": "cean",
        "2964": "Ġshoot",
        "2965": "Ġocean",
        "2966": "Ġguess",
        "2967": "Ġexciting",
        "2968": "Ġcone",
        "2969": "Ġadventur",
        "2970": "Ġadd",
        "2971": "ĠSunny",
        "2972": "ĠAl",
        "2973": "xible",
        "2974": "iness",
        "2975": "ilt",
        "2976": "Ġstamp",
        "2977": "Ġlifted",
        "2978": "Ġacorn",
        "2979": "yal",
        "2980": "opard",
        "2981": "dle",
        "2982": "Ġtrick",
        "2983": "Ġseal",
        "2984": "Ġscatter",
        "2985": "Ġclumsy",
        "2986": "ĠJenny",
        "2987": "angle",
        "2988": "ages",
        "2989": "Sorry",
        "2990": "Ġwrote",
        "2991": "Ġpasta",
        "2992": "Ġhairy",
        "2993": "Ġcush",
        "2994": "Ġadventurous",
        "2995": "lace",
        "2996": "Where",
        "2997": "Ġunl",
        "2998": "Ġpicks",
        "2999": "Ġnecklace",
        "3000": "Ġloyal",
        "3001": "Ġcrazy",
        "3002": "Ġcats",
        "3003": "Ġbody",
        "3004": "Ġarrow",
        "3005": "ti",
        "3006": "erries",
        "3007": "Ġtells",
        "3008": "Ġstubb",
        "3009": "Ġhose",
        "3010": "Ġharmless",
        "3011": "Ġexam",
        "3012": "Ġdepend",
        "3013": "Ġcomfortable",
        "3014": "Ġcost",
        "3015": "Ġbrace",
        "3016": "Ġberries",
        "3017": "xious",
        "3018": "urkey",
        "3019": "iant",
        "3020": "amond",
        "3021": "apped",
        "3022": "Ġsearched",
        "3023": "Ġdeliver",
        "3024": "Ġbehave",
        "3025": "tti",
        "3026": "hetti",
        "3027": "aghetti",
        "3028": "Ġorganized",
        "3029": "Ġengine",
        "3030": "Ġdiamond",
        "3031": "Ġanxious",
        "3032": "gu",
        "3033": "ependent",
        "3034": "Molly",
        "3035": "Ġstubborn",
        "3036": "Ġremind",
        "3037": "Ġmov",
        "3038": "Ġfis",
        "3039": "Ġcrayon",
        "3040": "Ġcollect",
        "3041": "light",
        "3042": "Ġthirsty",
        "3043": "Ġturkey",
        "3044": "Ġswe",
        "3045": "Ġstretch",
        "3046": "Ġscr",
        "3047": "Ġpracticed",
        "3048": "Ġplayful",
        "3049": "ĠEmily",
        "3050": "host",
        "3051": "anged",
        "3052": "Ġword",
        "3053": "Ġtied",
        "3054": "Ġpir",
        "3055": "Ġmailbox",
        "3056": "Ġjug",
        "3057": "Ġgloomy",
        "3058": "Ġfrag",
        "3059": "Ġenvel",
        "3060": "Ġenv",
        "3061": "Ġbubbles",
        "3062": "lph",
        "3063": "illa",
        "3064": "dile",
        "3065": "codile",
        "3066": "ants",
        "3067": "Ġyours",
        "3068": "Ġspaghetti",
        "3069": "Ġrep",
        "3070": "Ġraced",
        "3071": "Ġprun",
        "3072": "Ġpolice",
        "3073": "Ġindependent",
        "3074": "Ġflexible",
        "3075": "Ġcrawl",
        "3076": "Ġbathroom",
        "3077": "Ġbarber",
        "3078": "How",
        "3079": "Ġsil",
        "3080": "Ġpro",
        "3081": "Ġescape",
        "3082": "Ġdeer",
        "3083": "Ġcrack",
        "3084": "ĠEven",
        "3085": "Ġpige",
        "3086": "Ġpassed",
        "3087": "Ġmotor",
        "3088": "Ġliz",
        "3089": "Ġghost",
        "3090": "Ġfragile",
        "3091": "ĠU",
        "3092": "aff",
        "3093": "Ġneeds",
        "3094": "Ġjolly",
        "3095": "Ġdependable",
        "3096": "Ġdeaf",
        "3097": "Ġcelebrate",
        "3098": "shine",
        "3099": "io",
        "3100": "Ġwheat",
        "3101": "Ġstove",
        "3102": "Ġroof",
        "3103": "Ġrat",
        "3104": "Ġfig",
        "3105": "Ġdove",
        "3106": "Ġdolph",
        "3107": "Ġchess",
        "3108": "Ġbees",
        "3109": "ĠWhile",
        "3110": "cident",
        "3111": "Ġstat",
        "3112": "Ġraven",
        "3113": "Ġleopard",
        "3114": "Ġflash",
        "3115": "Ġcrocodile",
        "3116": "Ġbrill",
        "3117": "Ġattic",
        "3118": "nic",
        "3119": "Ġyarn",
        "3120": "Ġsung",
        "3121": "Ġshows",
        "3122": "Ġpainting",
        "3123": "Ġpress",
        "3124": "Ġmap",
        "3125": "Ġlog",
        "3126": "Ġexplained",
        "3127": "Ġchanged",
        "3128": "Ġbrilliant",
        "3129": "Ġboys",
        "3130": "ground",
        "3131": "Their",
        "3132": "If",
        "3133": "Ġweal",
        "3134": "Ġthu",
        "3135": "Ġpicnic",
        "3136": "Ġhumble",
        "3137": "Ġcolour",
        "3138": "Ġzip",
        "3139": "Ġtricks",
        "3140": "Ġshiver",
        "3141": "Ġmill",
        "3142": "Ġcrawled",
        "3143": "Ġboard",
        "3144": "Ġer",
        "3145": "nel",
        "3146": "hip",
        "3147": "Ġusing",
        "3148": "Ġtemple",
        "3149": "Ġignorant",
        "3150": "Ġenvelope",
        "3151": "Ġchoose",
        "3152": "weet",
        "3153": "lasses",
        "3154": "iv",
        "3155": "Me",
        "3156": "Mama",
        "3157": "Ġsunglasses",
        "3158": "Ġsend",
        "3159": "Ġruined",
        "3160": "Ġhoop",
        "3161": "Ġfriendship",
        "3162": "Ġframe",
        "3163": "Ġcheerful",
        "3164": "Ġballoons",
        "3165": "Ġavoc",
        "3166": "net",
        "3167": "met",
        "3168": "inary",
        "3169": "Ġraft",
        "3170": "Ġpopular",
        "3171": "Ġpepper",
        "3172": "Ġknee",
        "3173": "Ġfolder",
        "3174": "Ġcounted",
        "3175": "Ġbuilt",
        "3176": "Ġbottom",
        "3177": "Ġbatter",
        "3178": "Ġaccident",
        "3179": "most",
        "3180": "iddle",
        "3181": "Ġwaves",
        "3182": "Ġstones",
        "3183": "Ġspotted",
        "3184": "Ġrose",
        "3185": "Ġpants",
        "3186": "Ġhelmet",
        "3187": "Ġdelicate",
        "3188": "Ġcompet",
        "3189": "work",
        "3190": "ulu",
        "3191": "igator",
        "3192": "Every",
        "3193": "Ġtriangle",
        "3194": "Ġtoast",
        "3195": "Ġsunshine",
        "3196": "Ġspill",
        "3197": "Ġscreen",
        "3198": "Ġkissed",
        "3199": "Ġjack",
        "3200": "Ġenvious",
        "3201": "umpet",
        "3202": "fee",
        "3203": "ffee",
        "3204": "erable",
        "3205": "Ġtrumpet",
        "3206": "Ġstage",
        "3207": "Ġsighed",
        "3208": "Ġmiserable",
        "3209": "Ġmiddle",
        "3210": "Ġlouder",
        "3211": "Ġlizard",
        "3212": "Ġcleaning",
        "3213": "Ġcareless",
        "3214": "ĠYour",
        "3215": "ying",
        "3216": "ither",
        "3217": "Jane",
        "3218": "Ġwander",
        "3219": "Ġvegetables",
        "3220": "Ġtunnel",
        "3221": "Ġstatue",
        "3222": "Ġserious",
        "3223": "Ġscale",
        "3224": "Ġpigeon",
        "3225": "Ġpow",
        "3226": "Ġimpressive",
        "3227": "Ġharsh",
        "3228": "Ġfinger",
        "3229": "Ġalmost",
        "3230": "ĠNo",
        "3231": "seum",
        "3232": "iable",
        "3233": "Ġsailed",
        "3234": "Ġmaze",
        "3235": "Ġhopping",
        "3236": "Ġbracelet",
        "3237": "Ġborrow",
        "3238": "Ġbelt",
        "3239": "Ġalligator",
        "3240": "ĠSh",
        "3241": "Ġslipped",
        "3242": "Ġnosy",
        "3243": "Ġnapkin",
        "3244": "Ġmuseum",
        "3245": "Ġmeant",
        "3246": "Ġguard",
        "3247": "Ġfigure",
        "3248": "Ġearth",
        "3249": "There",
        "3250": "Ġwashed",
        "3251": "Ġtaken",
        "3252": "Ġsaus",
        "3253": "Ġpost",
        "3254": "Ġpenny",
        "3255": "Ġcompl",
        "3256": "Ġbin",
        "3257": "Ġattract",
        "3258": "Mum",
        "3259": "Ġreliable",
        "3260": "Ġrh",
        "3261": "Ġneighbor",
        "3262": "Ġmovie",
        "3263": "Ġjellyfish",
        "3264": "Ġjacket",
        "3265": "Ġhurts",
        "3266": "Ġhappiness",
        "3267": "Ġgar",
        "3268": "Ġcoffee",
        "3269": "Ġcries",
        "3270": "Ġcoo",
        "3271": "ctop",
        "3272": "berries",
        "3273": "Ġordinary",
        "3274": "Ġknight",
        "3275": "Ġgor",
        "3276": "Ġfilthy",
        "3277": "Ġattractive",
        "3278": "aser",
        "3279": "Ġwealthy",
        "3280": "Ġshore",
        "3281": "Ġradio",
        "3282": "Ġones",
        "3283": "Ġgem",
        "3284": "Ġcushion",
        "3285": "Ġcam",
        "3286": "utom",
        "3287": "utomob",
        "3288": "utomobile",
        "3289": "ipper",
        "3290": "Ġwalks",
        "3291": "Ġpeach",
        "3292": "Ġmuffin",
        "3293": "Ġmagnet",
        "3294": "Ġforward",
        "3295": "Ġcab",
        "3296": "Ġboxes",
        "3297": "Ġbelonged",
        "3298": "live",
        "3299": "Ġtag",
        "3300": "Ġshells",
        "3301": "Ġshade",
        "3302": "Ġpoured",
        "3303": "Ġnod",
        "3304": "Ġlocked",
        "3305": "Ġgorilla",
        "3306": "Ġcamera",
        "3307": "zzy",
        "3308": "pack",
        "3309": "llip",
        "3310": "llipop",
        "3311": "Ġwhispered",
        "3312": "Ġregular",
        "3313": "Ġpersist",
        "3314": "Ġlollipop",
        "3315": "Ġfluffy",
        "3316": "Ġdolphin",
        "3317": "Ġcabin",
        "3318": "Ġboats",
        "3319": "Ġanswered",
        "3320": "Ġautomobile",
        "3321": "ony",
        "3322": "ext",
        "3323": "appy",
        "3324": "Ġtimes",
        "3325": "Ġnods",
        "3326": "Ġgiving",
        "3327": "Ġdrawer",
        "3328": "Ġdesk",
        "3329": "dom",
        "3330": "Ġsmoke",
        "3331": "Ġsailor",
        "3332": "Ġmule",
        "3333": "Ġload",
        "3334": "Ġfour",
        "3335": "Ġcreate",
        "3336": "Ġcompetit",
        "3337": "ĠMiss",
        "3338": "uth",
        "3339": "omes",
        "3340": "ctopus",
        "3341": "coa",
        "3342": "cles",
        "3343": "Ġtravel",
        "3344": "Ġsaying",
        "3345": "Ġlotion",
        "3346": "Ġjudge",
        "3347": "Ġgum",
        "3348": "Ġchu",
        "3349": "inky",
        "3350": "ete",
        "3351": "Ġwitch",
        "3352": "Ġtwig",
        "3353": "Ġstronger",
        "3354": "Ġsniff",
        "3355": "Ġshrimp",
        "3356": "Ġdelight",
        "3357": "Ġcupboard",
        "3358": "Ġchubby",
        "3359": "Ġang",
        "3360": "ĠToday",
        "3361": "ĠJake",
        "3362": "und",
        "3363": "ict",
        "3364": "ging",
        "3365": "Go",
        "3366": "Ġwool",
        "3367": "Ġsuccessful",
        "3368": "Ġreturned",
        "3369": "Ġlibr",
        "3370": "Ġinvited",
        "3371": "Ġhouses",
        "3372": "Ġgarage",
        "3373": "Ġbubble",
        "3374": "urb",
        "3375": "essie",
        "3376": "Ġsupport",
        "3377": "Ġshowing",
        "3378": "Ġnicely",
        "3379": "Ġneedle",
        "3380": "Ġmole",
        "3381": "Ġlively",
        "3382": "Ġlean",
        "3383": "Ġhelpless",
        "3384": "mbre",
        "3385": "Who",
        "3386": "Ġyet",
        "3387": "Ġumbre",
        "3388": "Ġpersistent",
        "3389": "Ġmoder",
        "3390": "Ġhelps",
        "3391": "Ġgrown",
        "3392": "Ġfearful",
        "3393": "Ġdough",
        "3394": "Ġalert",
        "3395": "ief",
        "3396": "anut",
        "3397": "Ġtrunk",
        "3398": "Ġsquee",
        "3399": "Ġsolve",
        "3400": "Ġshine",
        "3401": "Ġscoot",
        "3402": "Ġradish",
        "3403": "Ġgets",
        "3404": "Ġfridge",
        "3405": "Ġdreams",
        "3406": "Ġdisturb",
        "3407": "Ġclub",
        "3408": "anger",
        "3409": "Ġvalue",
        "3410": "Ġsleeping",
        "3411": "Ġoctopus",
        "3412": "Ġmodern",
        "3413": "Ġlicked",
        "3414": "Ġlow",
        "3415": "Ġdecide",
        "3416": "Ġcooked",
        "3417": "Ġbedroom",
        "3418": "ĠLulu",
        "3419": "oin",
        "3420": "Ġrepe",
        "3421": "Ġloudly",
        "3422": "Ġcreature",
        "3423": "Ġcere",
        "3424": "Ġcarp",
        "3425": "Ġbounced",
        "3426": "otter",
        "3427": "Ġwishes",
        "3428": "Ġways",
        "3429": "Ġuncle",
        "3430": "Ġtire",
        "3431": "Ġtank",
        "3432": "Ġspeed",
        "3433": "Ġspeak",
        "3434": "Ġsort",
        "3435": "Ġsle",
        "3436": "Ġquar",
        "3437": "Ġhive",
        "3438": "Ġdive",
        "3439": "Ġcity",
        "3440": "Ġbase",
        "3441": "Ġacce",
        "3442": "ĠSn",
        "3443": "Ġotter",
        "3444": "ense",
        "3445": "azz",
        "3446": "Ġumbrella",
        "3447": "Ġtruth",
        "3448": "Ġthunder",
        "3449": "Ġsplit",
        "3450": "Ġlearning",
        "3451": "Ġharder",
        "3452": "Ġhipp",
        "3453": "Ġgym",
        "3454": "Ġeraser",
        "3455": "Ġcandle",
        "3456": "orable",
        "3457": "Sarah",
        "3458": "Ġstation",
        "3459": "Ġspend",
        "3460": "Ġrepair",
        "3461": "Ġlit",
        "3462": "xy",
        "3463": "ric",
        "3464": "ilty",
        "3465": "cut",
        "3466": "Ġorder",
        "3467": "Ġmop",
        "3468": "Ġmild",
        "3469": "Ġguilty",
        "3470": "Ġfather",
        "3471": "Ġcherries",
        "3472": "Ġchalk",
        "3473": "Ġcereal",
        "3474": "ye",
        "3475": "ulif",
        "3476": "iron",
        "3477": "Billy",
        "3478": "Ġwheels",
        "3479": "Ġweek",
        "3480": "Ġvine",
        "3481": "Ġthief",
        "3482": "Ġquarrel",
        "3483": "Ġpointing",
        "3484": "Ġjewelry",
        "3485": "Ġjet",
        "3486": "Ġflashlight",
        "3487": "Ġcocoa",
        "3488": "Ġbiggest",
        "3489": "tern",
        "3490": "atient",
        "3491": "Ġsoar",
        "3492": "Ġsink",
        "3493": "Ġknot",
        "3494": "Ġimpatient",
        "3495": "Ġhomes",
        "3496": "Ġgrace",
        "3497": "Ġfountain",
        "3498": "Ġcaulif",
        "3499": "Ġcact",
        "3500": "Ġadorable",
        "3501": "ĠTrue",
        "3502": "ĠRob",
        "3503": "Ġed",
        "3504": "gen",
        "3505": "asing",
        "3506": "Ġpowder",
        "3507": "Ġlibrary",
        "3508": "Ġhappening",
        "3509": "Ġcarpet",
        "3510": "Ġcactus",
        "3511": "Ġsweater",
        "3512": "Ġstream",
        "3513": "Ġskipped",
        "3514": "Ġpengu",
        "3515": "Ġoffice",
        "3516": "Ġherb",
        "3517": "Ġforth",
        "3518": "Ġcase",
        "3519": "ten",
        "3520": "keep",
        "3521": "irit",
        "3522": "arming",
        "3523": "Bobo",
        "3524": "Ġstaff",
        "3525": "Ġshield",
        "3526": "Ġlying",
        "3527": "Ġhalf",
        "3528": "Ġgrandpa",
        "3529": "Ġfork",
        "3530": "Ġflute",
        "3531": "Ġfisher",
        "3532": "ĠDolly",
        "3533": "rage",
        "3534": "rn",
        "3535": "ory",
        "3536": "oby",
        "3537": "ject",
        "3538": "isted",
        "3539": "Ġwhenever",
        "3540": "Ġhippo",
        "3541": "Ġhandle",
        "3542": "Ġgrapes",
        "3543": "Ġcharming",
        "3544": "esday",
        "3545": "assion",
        "3546": "Ġvalu",
        "3547": "Ġtripped",
        "3548": "Ġskin",
        "3549": "Ġfeathers",
        "3550": "Ġcounting",
        "3551": "Ġcauliflower",
        "3552": "Ġangel",
        "3553": "zed",
        "3554": "ped",
        "3555": "levator",
        "3556": "acht",
        "3557": "Ġticket",
        "3558": "Ġthinking",
        "3559": "Ġthemselves",
        "3560": "Ġtap",
        "3561": "Ġstrawberry",
        "3562": "Ġslept",
        "3563": "Ġmarry",
        "3564": "Ġled",
        "3565": "Ġknows",
        "3566": "Ġhunt",
        "3567": "Ġelevator",
        "3568": "Ġdesign",
        "3569": "Ġavocado",
        "3570": "ĠPeter",
        "3571": "was",
        "3572": "washer",
        "3573": "lephone",
        "3574": "edy",
        "3575": "Ġyacht",
        "3576": "Ġwrapped",
        "3577": "Ġtelephone",
        "3578": "Ġspun",
        "3579": "Ġgifted",
        "3580": "Ġeventually",
        "3581": "Ġdishwasher",
        "3582": "Ġcomplain",
        "3583": "Ġcompetitive",
        "3584": "ellig",
        "3585": "Ġskip",
        "3586": "Ġshrink",
        "3587": "Ġintellig",
        "3588": "Ġexcite",
        "3589": "Ġiron",
        "3590": "Mummy",
        "3591": "Ġtray",
        "3592": "Ġtowers",
        "3593": "Ġsauce",
        "3594": "Ġquit",
        "3595": "Ġphoto",
        "3596": "Ġhaircut",
        "3597": "Ġgathered",
        "3598": "Ġflea",
        "3599": "Ġdisappoin",
        "3600": "Ġcompassion",
        "3601": "rill",
        "3602": "ates",
        "3603": "Ġwire",
        "3604": "Ġpole",
        "3605": "Ġpoem",
        "3606": "Ġpirate",
        "3607": "Ġnurse",
        "3608": "Ġgiggled",
        "3609": "Ġdecorate",
        "3610": "Ġdeter",
        "3611": "Ġanch",
        "3612": "ĠTweet",
        "3613": "ĠRose",
        "3614": "ulance",
        "3615": "opl",
        "3616": "eropl",
        "3617": "elery",
        "3618": "bulance",
        "3619": "Jim",
        "3620": "Ġwaff",
        "3621": "Ġvaluable",
        "3622": "Ġtorn",
        "3623": "Ġtoe",
        "3624": "Ġshape",
        "3625": "Ġrestless",
        "3626": "Ġquestion",
        "3627": "Ġham",
        "3628": "Ġears",
        "3629": "Ġcricket",
        "3630": "Ġanchor",
        "3631": "Ġambulance",
        "3632": "Ġaeropl",
        "3633": "Fluffy",
        "3634": "Ġyaw",
        "3635": "Ġvide",
        "3636": "Ġslides",
        "3637": "Ġnumb",
        "3638": "Ġhotel",
        "3639": "Ġdeterm",
        "3640": "Ġbuttons",
        "3641": "Ġbarrel",
        "3642": "ision",
        "3643": "ats",
        "3644": "aged",
        "3645": "ache",
        "3646": "Give",
        "3647": "Ġstranger",
        "3648": "Ġsett",
        "3649": "Ġedge",
        "3650": "body",
        "3651": "ating",
        "3652": "Ġzipper",
        "3653": "Ġwife",
        "3654": "Ġunlock",
        "3655": "Ġtrail",
        "3656": "Ġtears",
        "3657": "Ġshut",
        "3658": "Ġsight",
        "3659": "Ġpattern",
        "3660": "Ġnumbers",
        "3661": "Ġmeal",
        "3662": "Ġcelery",
        "3663": "Ġbull",
        "3664": "old",
        "3665": "Ġweigh",
        "3666": "Ġtrap",
        "3667": "Ġspinning",
        "3668": "Ġsalt",
        "3669": "Ġribb",
        "3670": "Ġpit",
        "3671": "Ġmeans",
        "3672": "Ġlaughs",
        "3673": "Ġintelligent",
        "3674": "Ġfisherman",
        "3675": "Ġdisappointed",
        "3676": "Ġcompassionate",
        "3677": "Ġbushes",
        "3678": "ĠJimmy",
        "3679": "ĠBoun",
        "3680": "del",
        "3681": "?\".",
        "3682": "Ġple",
        "3683": "Ġmodel",
        "3684": "Ġcomput",
        "3685": "Ġcardboard",
        "3686": "Ġbananas",
        "3687": "spit",
        "3688": "spital",
        "3689": "keeper",
        "3690": "iew",
        "3691": "head",
        "3692": "Ġwalls",
        "3693": "Ġview",
        "3694": "Ġsurf",
        "3695": "Ġsoldier",
        "3696": "Ġpear",
        "3697": "Ġnewsp",
        "3698": "Ġmug",
        "3699": "Ġjuicy",
        "3700": "Ġink",
        "3701": "Ġhospital",
        "3702": "Ġeither",
        "3703": "ĠToby",
        "3704": "ĠPete",
        "3705": "ĠKim",
        "3706": "quit",
        "3707": "quito",
        "3708": "ophie",
        "3709": "dest",
        "3710": "Ġshort",
        "3711": "Ġrid",
        "3712": "Ġoil",
        "3713": "Ġmitten",
        "3714": "Ġcurt",
        "3715": "Ġbirdc",
        "3716": "Ġadded",
        "3717": "nam",
        "3718": "ention",
        "3719": "Mr",
        "3720": "'d",
        "3721": "Ġsucce",
        "3722": "Ġspear",
        "3723": "Ġsilver",
        "3724": "Ġsafely",
        "3725": "Ġprep",
        "3726": "Ġpee",
        "3727": "Ġpap",
        "3728": "Ġpal",
        "3729": "Ġnail",
        "3730": "Ġdistant",
        "3731": "Ġcurtain",
        "3732": "Ġbirdcage",
        "3733": "ĠPeople",
        "3734": "ushed",
        "3735": "squito",
        "3736": "!\".",
        "3737": "Ġspilled",
        "3738": "Ġmosquito",
        "3739": "Ġenc",
        "3740": "Ġcrib",
        "3741": "utes",
        "3742": "uring",
        "3743": "uper",
        "3744": "ron",
        "3745": "fa",
        "3746": "aving",
        "3747": "Ġyogurt",
        "3748": "Ġwiped",
        "3749": "Ġtummy",
        "3750": "Ġtask",
        "3751": "Ġrode",
        "3752": "Ġquestions",
        "3753": "Ġplayground",
        "3754": "Ġpainter",
        "3755": "Ġpale",
        "3756": "Ġpurse",
        "3757": "Ġlights",
        "3758": "Ġlabel",
        "3759": "Ġdreamed",
        "3760": "Ġcostume",
        "3761": "Ġcoins",
        "3762": "Ġcob",
        "3763": "Ġbikes",
        "3764": "Ġbump",
        "3765": "ĠBuzz",
        "3766": "par",
        "3767": "Ġsucceed",
        "3768": "Ġspirit",
        "3769": "Ġshocked",
        "3770": "Ġrubber",
        "3771": "Ġpretending",
        "3772": "Ġmotorcy",
        "3773": "Ġminutes",
        "3774": "Ġgraceful",
        "3775": "Ġglove",
        "3776": "Ġaeroplane",
        "3777": "ĠOK",
        "3778": "urch",
        "3779": "opter",
        "3780": "ocer",
        "3781": "inocer",
        "3782": "icopter",
        "3783": "ately",
        "3784": "ait",
        "3785": ",âĢĿ",
        "3786": "Ġstack",
        "3787": "Ġsausage",
        "3788": "Ġprov",
        "3789": "Ġpalace",
        "3790": "Ġpor",
        "3791": "Ġitself",
        "3792": "Ġhelicopter",
        "3793": "Ġfalls",
        "3794": "Ġdust",
        "3795": "Ġcomputer",
        "3796": "Ġcollar",
        "3797": "Ġcoal",
        "3798": "Ġchain",
        "3799": "ĠLittle",
        "3800": "uel",
        "3801": "stal",
        "3802": "riger",
        "3803": "rigerator",
        "3804": "nament",
        "3805": "inoceros",
        "3806": "Ġscooter",
        "3807": "Ġpun",
        "3808": "Ġornament",
        "3809": "Ġknob",
        "3810": "Ġkindness",
        "3811": "Ġcrystal",
        "3812": "ucet",
        "3813": "Ġsteps",
        "3814": "Ġrod",
        "3815": "Ġparade",
        "3816": "Ġpacked",
        "3817": "Ġoak",
        "3818": "Ġmelt",
        "3819": "Ġlime",
        "3820": "Ġgolf",
        "3821": "Ġgear",
        "3822": "Ġfaucet",
        "3823": "Ġax",
        "3824": "ĠTeddy",
        "3825": "umbled",
        "3826": "Ġvend",
        "3827": "Ġthose",
        "3828": "Ġrefrigerator",
        "3829": "Ġnewspaper",
        "3830": "Ġmodest",
        "3831": "Ġlie",
        "3832": "Ġleash",
        "3833": "Ġhour",
        "3834": "Ġeye",
        "3835": "Ġbaseball",
        "3836": "ĠEverywhere",
        "3837": "ugged",
        "3838": "rework",
        "3839": "levision",
        "3840": "ilot",
        "3841": "cing",
        "3842": "Is",
        "3843": "Ġsepar",
        "3844": "Ġsuper",
        "3845": "Ġrhinoceros",
        "3846": "Ġpicking",
        "3847": "Ġmatt",
        "3848": "Ġmakeup",
        "3849": "Ġlic",
        "3850": "Ġhate",
        "3851": "Ġfirework",
        "3852": "Ġfog",
        "3853": "Ġdriving",
        "3854": "Ġdisappeared",
        "3855": "Ġcomplet",
        "3856": "Ġcable",
        "3857": "Ġbrothers",
        "3858": "Ġavail",
        "3859": "ĠBill",
        "3860": "stri",
        "3861": "ampoo",
        "3862": "Ġvideo",
        "3863": "Ġtelevision",
        "3864": "Ġswinging",
        "3865": "Ġsofa",
        "3866": "Ġserve",
        "3867": "Ġresc",
        "3868": "Ġpine",
        "3869": "Ġonion",
        "3870": "Ġoften",
        "3871": "Ġnovel",
        "3872": "Ġlicense",
        "3873": "Ġinse",
        "3874": "ĠSpike",
        "3875": "ĠGive",
        "3876": "time",
        "3877": "roph",
        "3878": "aked",
        "3879": "Well",
        "3880": "Ġspell",
        "3881": "Ġrubbed",
        "3882": "Ġpolish",
        "3883": "Ġmedal",
        "3884": "Ġmanaged",
        "3885": "Ġmath",
        "3886": "Ġhall",
        "3887": "Ġhook",
        "3888": "Ġdetermined",
        "3889": "Ġcups",
        "3890": "Ġchurch",
        "3891": "Ġaxe",
        "3892": "Ġavailable",
        "3893": "ĠCl",
        "3894": "ĠBirdy",
        "3895": "web",
        "3896": "rophone",
        "3897": "Ġtaller",
        "3898": "Ġsparkly",
        "3899": "Ġscrew",
        "3900": "Ġporch",
        "3901": "Ġmissile",
        "3902": "Ġmeadow",
        "3903": "Ġdrawings",
        "3904": "Ġdisappear",
        "3905": "Ġcooler",
        "3906": "Ġcobweb",
        "3907": "Ġbags",
        "3908": "Ġalarm",
        "3909": "ĠMum",
        "3910": "ĠFo",
        "3911": "ĠBet",
        "3912": "stairs",
        "3913": "htub",
        "3914": "drobe",
        "3915": "ckey",
        "3916": "arry",
        "3917": "Ġwardrobe",
        "3918": "Ġvendor",
        "3919": "Ġstared",
        "3920": "Ġpenguin",
        "3921": "Ġmetal",
        "3922": "Ġhockey",
        "3923": "Ġgrowl",
        "3924": "Ġdiary",
        "3925": "Ġclimbing",
        "3926": "Ġbookshe",
        "3927": "Ġbathtub",
        "3928": "Ġbasketball",
        "3929": "Ġbandage",
        "3930": "Ġig",
        "3931": "usia",
        "3932": "ready",
        "3933": "loo",
        "3934": "husia",
        "3935": "erc",
        "3936": "Bye",
        "3937": "Ġveil",
        "3938": "Ġthread",
        "3939": "Ġrolling",
        "3940": "Ġrice",
        "3941": "Ġostri",
        "3942": "Ġminer",
        "3943": "Ġmeat",
        "3944": "Ġmay",
        "3945": "Ġigloo",
        "3946": "Ġhurry",
        "3947": "Ġgasped",
        "3948": "Ġenthusia",
        "3949": "Ġcherry",
        "3950": "Ġbookshelf",
        "3951": "Ġbattery",
        "3952": "Ġalready",
        "3953": "ĠJohnny",
        "3954": "omed",
        "3955": "Wait",
        "3956": "Re",
        "3957": "Ġswung",
        "3958": "Ġstud",
        "3959": "Ġstretched",
        "3960": "Ġroot",
        "3961": "Ġrise",
        "3962": "Ġpapers",
        "3963": "Ġorganize",
        "3964": "Ġmagaz",
        "3965": "Ġknock",
        "3966": "Ġitch",
        "3967": "Ġinsect",
        "3968": "Ġhunter",
        "3969": "Ġgrape",
        "3970": "Ġexplain",
        "3971": "Ġcomet",
        "3972": "ĠSnow",
        "3973": "ĠPipp",
        "3974": "verse",
        "3975": "istol",
        "3976": "affe",
        "3977": "See",
        "3978": "Al",
        "3979": "Ġobject",
        "3980": "Ġok",
        "3981": "Ġnotice",
        "3982": "Ġmotorcycle",
        "3983": "Ġmicrophone",
        "3984": "Ġmattress",
        "3985": "Ġmummy",
        "3986": "Ġlumber",
        "3987": "Ġbicy",
        "3988": "ricane",
        "3989": "nger",
        "3990": "Ġsnap",
        "3991": "Ġrealised",
        "3992": "Ġreward",
        "3993": "Ġpistol",
        "3994": "Ġpilot",
        "3995": "Ġmustache",
        "3996": "Ġimpro",
        "3997": "Ġflame",
        "3998": "Ġexerc",
        "3999": "Ġencou",
        "4000": "Ġdreaming",
        "4001": "Ġdess",
        "4002": "Ġcooking",
        "4003": "Ġarg",
        "4004": "ometer",
        "4005": "lcan",
        "4006": "asp",
        "4007": "aul",
        "4008": "Gra",
        "4009": "Ġwinter",
        "4010": "Ġwallet",
        "4011": "Ġvolcan",
        "4012": "Ġunpack",
        "4013": "Ġtroph",
        "4014": "Ġsuggest",
        "4015": "Ġsheet",
        "4016": "Ġjokes",
        "4017": "Ġflour",
        "4018": "Ġfought",
        "4019": "Ġblackboard",
        "4020": "ĠZoomy",
        "4021": "rmometer",
        "4022": "lter",
        "4023": "ipe",
        "4024": "iano",
        "4025": "aches",
        "4026": "Ġpeanut",
        "4027": "Ġpastry",
        "4028": "Ġnetwork",
        "4029": "Ġfalling",
        "4030": "Ġbuckle",
        "4031": "Ġblin",
        "4032": "Ġbicycle",
        "4033": "ĠLee",
        "4034": "aid",
        "4035": "Ouch",
        "4036": "Ġvolcano",
        "4037": "Ġvi",
        "4038": "Ġtrucks",
        "4039": "Ġtrophy",
        "4040": "Ġsunset",
        "4041": "Ġshampoo",
        "4042": "Ġrake",
        "4043": "Ġcalling",
        "4044": "Ġcamp",
        "4045": "Ġbent",
        "4046": "aky",
        "4047": "Ġweep",
        "4048": "Ġstom",
        "4049": "Ġpressed",
        "4050": "Ġpractice",
        "4051": "Ġpiano",
        "4052": "Ġostrich",
        "4053": "Ġneat",
        "4054": "Ġdrain",
        "4055": "Ġbeef",
        "4056": "Ġattach",
        "4057": "ĠPandy",
        "4058": "ured",
        "4059": "lies",
        "4060": "aspoon",
        "4061": "angu",
        "4062": "Ġtrains",
        "4063": "Ġteaspoon",
        "4064": "Ġsweetie",
        "4065": "Ġstable",
        "4066": "Ġshelter",
        "4067": "Ġpoke",
        "4068": "Ġpackage",
        "4069": "Ġmem",
        "4070": "Ġhuman",
        "4071": "Ġhours",
        "4072": "Ġhanging",
        "4073": "Ġhammer",
        "4074": "Ġbury",
        "4075": "Ġapron",
        "4076": "ummer",
        "4077": "bol",
        "4078": "aroo",
        "4079": "angaroo",
        "4080": "Ġtrack",
        "4081": "Ġsquirrels",
        "4082": "Ġsne",
        "4083": "Ġsym",
        "4084": "Ġrag",
        "4085": "Ġpatch",
        "4086": "Ġoffered",
        "4087": "Ġmessage",
        "4088": "Ġmarched",
        "4089": "Ġkangaroo",
        "4090": "Ġins",
        "4091": "Ġhut",
        "4092": "Ġenjoying",
        "4093": "Ġdiscovered",
        "4094": "Ġcrane",
        "4095": "Ġblouse",
        "4096": "Ġagainst",
        "4097": "Ġow",
        "4098": "zag",
        "4099": "ube",
        "4100": "play",
        "4101": "igzag",
        "4102": "ctory",
        "4103": "Ġur",
        "4104": "Ġtube",
        "4105": "Ġsymbol",
        "4106": "Ġskull",
        "4107": "Ġskirt",
        "4108": "Ġprunes",
        "4109": "Ġpassport",
        "4110": "Ġmagazine",
        "4111": "Ġlend",
        "4112": "Ġlangu",
        "4113": "Ġfactory",
        "4114": "Ġearly",
        "4115": "Ġdisplay",
        "4116": "ĠJo",
        "4117": "ature",
        "4118": "Ġstairs",
        "4119": "Ġshovel",
        "4120": "Ġprevent",
        "4121": "Ġpeeked",
        "4122": "Ġnation",
        "4123": "Ġholds",
        "4124": "Ġfrogs",
        "4125": "Ġfingers",
        "4126": "Ġfuel",
        "4127": "Ġexcitement",
        "4128": "ĠFro",
        "4129": "stic",
        "4130": "Little",
        "4131": "Ġuniver",
        "4132": "Ġten",
        "4133": "Ġson",
        "4134": "Ġrot",
        "4135": "Ġperm",
        "4136": "Ġonce",
        "4137": "Ġlip",
        "4138": "Ġjournal",
        "4139": "Ġenthusiastic",
        "4140": "Ġdessert",
        "4141": "Ġcheck",
        "4142": "Ġcastles",
        "4143": "Ġcell",
        "4144": "Ġbathe",
        "4145": "Ġaccidentally",
        "4146": "ĠZip",
        "4147": "ĠLook",
        "4148": "ĠBessie",
        "4149": "leton",
        "4150": "keleton",
        "4151": "Ġyoga",
        "4152": "Ġtheater",
        "4153": "Ġpopped",
        "4154": "Ġopens",
        "4155": "Ġoy",
        "4156": "Ġkne",
        "4157": "Ġjunk",
        "4158": "Ġhappier",
        "4159": "Ġfreez",
        "4160": "Ġfootball",
        "4161": "Ġcube",
        "4162": "ĠDan",
        "4163": "ium",
        "4164": "ience",
        "4165": "ffic",
        "4166": "Ġzoomed",
        "4167": "Ġthermometer",
        "4168": "Ġtelling",
        "4169": "Ġshaking",
        "4170": "Ġskeleton",
        "4171": "Ġreading",
        "4172": "Ġpipe",
        "4173": "Ġmatches",
        "4174": "Ġloop",
        "4175": "Ġhedge",
        "4176": "Ġgrowing",
        "4177": "Ġfive",
        "4178": "Ġcord",
        "4179": "Ġbathrobe",
        "4180": "Ġallowed",
        "4181": "ĠHere",
        "4182": "ĠBuzzy",
        "4183": "xygen",
        "4184": "ination",
        "4185": "come",
        "4186": "azor",
        "4187": "Ġslipp",
        "4188": "Ġrestore",
        "4189": "Ġfastest",
        "4190": "Ġdistance",
        "4191": "Ġdisag",
        "4192": "ĠâĢ",
        "4193": "ney",
        "4194": "ionary",
        "4195": "ines",
        "4196": "ictionary",
        "4197": "Ġstumbled",
        "4198": "Ġpinch",
        "4199": "Ġlistening",
        "4200": "Ġhanger",
        "4201": "hero",
        "4202": "case",
        "4203": "Ġviol",
        "4204": "Ġsuperhero",
        "4205": "Ġstirred",
        "4206": "Ġribbon",
        "4207": "Ġplanet",
        "4208": "Ġpeek",
        "4209": "Ġgoal",
        "4210": "Ġfilm",
        "4211": "Ġdictionary",
        "4212": "Ġadmire",
        "4213": "Ġahead",
        "4214": "fast",
        "4215": "Sh",
        "4216": "Joe",
        "4217": "Ġviolin",
        "4218": "Ġtrash",
        "4219": "Ġtoile",
        "4220": "Ġsurprises",
        "4221": "Ġstickers",
        "4222": "Ġreverse",
        "4223": "Ġhelper",
        "4224": "Ġgaz",
        "4225": "Ġcomplete",
        "4226": "Ġchose",
        "4227": "Ġbrick",
        "4228": "Ġalive",
        "4229": "ĠTina",
        "4230": "ĠMummy",
        "4231": "astic",
        "4232": "arian",
        "4233": "Ġstrugg",
        "4234": "Ġstops",
        "4235": "Ġsub",
        "4236": "Ġpoppy",
        "4237": "Ġpony",
        "4238": "Ġjumps",
        "4239": "Ġchasing",
        "4240": "undry",
        "4241": "place",
        "4242": "iest",
        "4243": "cu",
        "4244": "apon",
        "4245": "Jill",
        "4246": "Ġrespectful",
        "4247": "Ġrail",
        "4248": "Ġmineral",
        "4249": "Ġlaundry",
        "4250": "Ġfreezer",
        "4251": "Ġdoesn",
        "4252": "Ġcircles",
        "4253": "Ġcudd",
        "4254": "Ġbreakfast",
        "4255": "Ġblinked",
        "4256": "Ġbill",
        "4257": "Ġaccept",
        "4258": "ĠEllie",
        "4259": "stiv",
        "4260": "stival",
        "4261": "render",
        "4262": "lid",
        "4263": "chan",
        "4264": "Ġvest",
        "4265": "Ġtoilet",
        "4266": "Ġtooth",
        "4267": "Ġswitch",
        "4268": "Ġstrip",
        "4269": "Ġsummer",
        "4270": "Ġrefused",
        "4271": "Ġplayer",
        "4272": "Ġleaving",
        "4273": "Ġlaser",
        "4274": "Ġhurricane",
        "4275": "Ġgrill",
        "4276": "Ġfestival",
        "4277": "Ġexercise",
        "4278": "Ġbeet",
        "4279": "liday",
        "4280": "adium",
        "4281": "Ġwaffle",
        "4282": "Ġstadium",
        "4283": "Ġlions",
        "4284": "Ġleak",
        "4285": "Ġlanguage",
        "4286": "Ġholiday",
        "4287": "Ġfireplace",
        "4288": "Ġdoors",
        "4289": "Ġcabinet",
        "4290": "ĠMrs",
        "4291": "htray",
        "4292": "Did",
        "4293": "Ġtwir",
        "4294": "Ġspoke",
        "4295": "Ġsniffed",
        "4296": "Ġsneeze",
        "4297": "Ġsearching",
        "4298": "Ġrules",
        "4299": "Ġpleased",
        "4300": "Ġmonkeys",
        "4301": "Ġmint",
        "4302": "Ġmeowed",
        "4303": "Ġmen",
        "4304": "Ġberry",
        "4305": "Ġairport",
        "4306": "ĠZoom",
        "4307": "ĠElly",
        "4308": "wards",
        "4309": "med",
        "4310": "iches",
        "4311": "Ow",
        "4312": "Em",
        "4313": "Ġtraffic",
        "4314": "Ġtightly",
        "4315": "Ġtip",
        "4316": "Ġslap",
        "4317": "Ġsandwiches",
        "4318": "Ġroared",
        "4319": "Ġrazor",
        "4320": "Ġoats",
        "4321": "Ġlemons",
        "4322": "Ġlawn",
        "4323": "Ġforgave",
        "4324": "Ġfavour",
        "4325": "Ġcomfort",
        "4326": "ĠBetty",
        "4327": "ki",
        "4328": "ince",
        "4329": "imney",
        "4330": "iggly",
        "4331": "chanic",
        "4332": "Ġwindows",
        "4333": "Ġstomach",
        "4334": "Ġsticker",
        "4335": "Ġslip",
        "4336": "Ġseparate",
        "4337": "Ġsent",
        "4338": "Ġplastic",
        "4339": "Ġpair",
        "4340": "Ġobser",
        "4341": "Ġnature",
        "4342": "Ġmeeting",
        "4343": "Ġmechanic",
        "4344": "Ġfinds",
        "4345": "Ġfavourite",
        "4346": "Ġchimney",
        "4347": "Ġcaring",
        "4348": "Ġcur",
        "4349": "Ġboots",
        "4350": "Ġashtray",
        "4351": "Ġanyway",
        "4352": "Ġagree",
        "4353": "ĠOr",
        "4354": "ĠMar",
        "4355": "sses",
        "4356": "ement",
        "4357": "Ġunite",
        "4358": "Ġtomatoes",
        "4359": "Ġresist",
        "4360": "Ġmixer",
        "4361": "Ġlightning",
        "4362": "Ġgrabs",
        "4363": "Ġener",
        "4364": "Ġcows",
        "4365": "Ġbreat",
        "4366": "Ġblueberry",
        "4367": "Ġbeetle",
        "4368": "Ġbarking",
        "4369": "ĠJazz",
        "4370": "year",
        "4371": "hic",
        "4372": "Ġvehic",
        "4373": "Ġsubway",
        "4374": "Ġsport",
        "4375": "Ġpoint",
        "4376": "Ġpoked",
        "4377": "Ġminute",
        "4378": "Ġletters",
        "4379": "Ġimagine",
        "4380": "Ġholes",
        "4381": "Ġgiraffe",
        "4382": "Ġclassroom",
        "4383": "Ġcards",
        "4384": "Ġbelongs",
        "4385": "ĠAre",
        "4386": "ĠY",
        "4387": "night",
        "4388": "la",
        "4389": "hter",
        "4390": "book",
        "4391": "ayak",
        "4392": "amber",
        "4393": "Ġremove",
        "4394": "Ġoyster",
        "4395": "Ġnotebook",
        "4396": "Ġmistakes",
        "4397": "Ġlaughter",
        "4398": "Ġkayak",
        "4399": "Ġinvite",
        "4400": "Ġflood",
        "4401": "Ġbillboard",
        "4402": "ĠSophie",
        "4403": "ĠPippin",
        "4404": "ĠBounce",
        "4405": "ĠBig",
        "4406": "te",
        "4407": "apa",
        "4408": "Ġyield",
        "4409": "Ġremain",
        "4410": "Ġrac",
        "4411": "Ġpuddles",
        "4412": "Ġoxygen",
        "4413": "Ġnames",
        "4414": "Ġmusician",
        "4415": "Ġleaned",
        "4416": "Ġimprove",
        "4417": "Ġhanded",
        "4418": "Ġcountry",
        "4419": "Ġcartoon",
        "4420": "ĠAlice",
        "4421": "chair",
        "4422": "cast",
        "4423": "Jimmy",
        "4424": "Ġwhip",
        "4425": "Ġwarned",
        "4426": "Ġwarn",
        "4427": "Ġswamp",
        "4428": "Ġspoil",
        "4429": "Ġsandcast",
        "4430": "Ġsudden",
        "4431": "Ġsize",
        "4432": "Ġproudly",
        "4433": "Ġproblems",
        "4434": "Ġglowing",
        "4435": "Ġcourage",
        "4436": "Ġchamber",
        "4437": "Ġbookcase",
        "4438": "ĠSandy",
        "4439": "vice",
        "4440": "ola",
        "4441": "lend",
        "4442": "inarian",
        "4443": "igi",
        "4444": "eterinarian",
        "4445": "eb",
        "4446": "Ġwipe",
        "4447": "Ġwine",
        "4448": "Ġstrawberries",
        "4449": "Ġsadly",
        "4450": "Ġpushes",
        "4451": "Ġpulls",
        "4452": "Ġlawy",
        "4453": "Ġdancer",
        "4454": "Ġbeep",
        "4455": "Ġabove",
        "4456": "ĠRu",
        "4457": "ison",
        "4458": "Ġtrade",
        "4459": "Ġsurrender",
        "4460": "Ġsoil",
        "4461": "Ġslippery",
        "4462": "Ġsandbox",
        "4463": "Ġrescue",
        "4464": "Ġpanic",
        "4465": "Ġpages",
        "4466": "Ġnavy",
        "4467": "Ġfrowned",
        "4468": "Ġfre",
        "4469": "Ġcopper",
        "4470": "Ġcliff",
        "4471": "Ġceiling",
        "4472": "Ġbutterflies",
        "4473": "Ġappl",
        "4474": "ĠCo",
        "4475": "usie",
        "4476": "rod",
        "4477": "emember",
        "4478": "coli",
        "4479": "ccoli",
        "4480": "Ġveterinarian",
        "4481": "Ġtease",
        "4482": "Ġrece",
        "4483": "Ġplanes",
        "4484": "Ġpage",
        "4485": "Ġkneel",
        "4486": "Ġkinds",
        "4487": "Ġincre",
        "4488": "Ġfort",
        "4489": "Ġfeelings",
        "4490": "Ġcarrying",
        "4491": "Ġarmchair",
        "4492": "Ġart",
        "4493": "ĠPolly",
        "4494": "ĠOw",
        "4495": "Ġx",
        "4496": "gie",
        "4497": "ecause",
        "4498": "ebra",
        "4499": "aud",
        "4500": "Ġweapon",
        "4501": "Ġstair",
        "4502": "Ġrepeat",
        "4503": "Ġprovide",
        "4504": "Ġintrod",
        "4505": "Ġignore",
        "4506": "Ġenergy",
        "4507": "Ġdelay",
        "4508": "Ġbrightly",
        "4509": "Ġbelieved",
        "4510": "scope",
        "4511": "roscope",
        "4512": "nesday",
        "4513": "lendar",
        "4514": "lu",
        "4515": "ednesday",
        "4516": "cer",
        "4517": "anda",
        "4518": "Ġwaste",
        "4519": "Ġtools",
        "4520": "Ġsomewhere",
        "4521": "Ġshakes",
        "4522": "Ġregret",
        "4523": "Ġprayed",
        "4524": "Ġped",
        "4525": "Ġmailman",
        "4526": "Ġlid",
        "4527": "Ġheat",
        "4528": "Ġcalendar",
        "4529": "ĠPaul",
        "4530": "olog",
        "4531": "low",
        "4532": "imed",
        "4533": "Ġzebra",
        "4534": "Ġsounded",
        "4535": "Ġsandcastle",
        "4536": "Ġsaving",
        "4537": "Ġreminded",
        "4538": "Ġolder",
        "4539": "Ġnobody",
        "4540": "Ġmeas",
        "4541": "Ġlives",
        "4542": "Ġkeeping",
        "4543": "Ġapolog",
        "4544": "Ġadvice",
        "4545": "Ġaw",
        "4546": "ĠWhere",
        "4547": "ĠGod",
        "4548": "itation",
        "4549": "elcome",
        "4550": "Your",
        "4551": "Ġvehicle",
        "4552": "Ġraise",
        "4553": "Ġprice",
        "4554": "Ġmystery",
        "4555": "Ġlawyer",
        "4556": "Ġfreeze",
        "4557": "Ġflies",
        "4558": "Ġext",
        "4559": "Ġchoice",
        "4560": "Ġcane",
        "4561": "Ġanywhere",
        "4562": "hest",
        "4563": "eer",
        "4564": "Ġtax",
        "4565": "Ġsuggested",
        "4566": "Ġstarts",
        "4567": "Ġsoftly",
        "4568": "Ġshouts",
        "4569": "Ġshone",
        "4570": "Ġrooms",
        "4571": "Ġrushed",
        "4572": "Ġletting",
        "4573": "Ġinclu",
        "4574": "Ġimagined",
        "4575": "Ġhappens",
        "4576": "Ġdear",
        "4577": "Ġcrossed",
        "4578": "Ġcolourful",
        "4579": "Ġchairs",
        "4580": "Ġbreaks",
        "4581": "ĠSu",
        "4582": "ĠGrandpa",
        "4583": "ores",
        "4584": "ogn",
        "4585": "lex",
        "4586": "aurant",
        "4587": "alley",
        "4588": "aggie",
        "4589": "Ġtaxi",
        "4590": "Ġsqueeze",
        "4591": "Ġsmells",
        "4592": "Ġrestaurant",
        "4593": "Ġreplace",
        "4594": "Ġrecogn",
        "4595": "Ġpitch",
        "4596": "Ġexcitedly",
        "4597": "Ġeaten",
        "4598": "Ġchickens",
        "4599": "Ġapplaud",
        "4600": "ĠWiggly",
        "4601": "ĠPapa",
        "4602": "ĠNext",
        "4603": "ĠGigi",
        "4604": "orge",
        "4605": "indeer",
        "4606": "eorge",
        "4607": "apping",
        "4608": "Next",
        "4609": "Mary",
        "4610": "Mark",
        "4611": "Ġvalley",
        "4612": "Ġtrem",
        "4613": "Ġtub",
        "4614": "Ġsteam",
        "4615": "Ġreindeer",
        "4616": "Ġranch",
        "4617": "Ġrained",
        "4618": "Ġolive",
        "4619": "Ġgain",
        "4620": "Ġfile",
        "4621": "Ġcontent",
        "4622": "Ġbroccoli",
        "4623": "Ġblowing",
        "4624": "ĠCarl",
        "4625": "arlie",
        "4626": "Ġmicroscope",
        "4627": "Ġextra",
        "4628": "Ġended",
        "4629": "Ġequ",
        "4630": "Ġdishes",
        "4631": "ĠWould",
        "4632": "ĠWednesday",
        "4633": "ĠSte",
        "4634": "ĠV",
        "4635": "utor",
        "4636": "na",
        "4637": "ero",
        "4638": "ected",
        "4639": "Yuck",
        "4640": "Yay",
        "4641": "Ġtornado",
        "4642": "Ġspade",
        "4643": "Ġsneezed",
        "4644": "Ġreve",
        "4645": "Ġprepare",
        "4646": "Ġmass",
        "4647": "Ġhung",
        "4648": "Ġfresh",
        "4649": "Ġevent",
        "4650": "Ġdelighted",
        "4651": "Ġdare",
        "4652": "Ġchewed",
        "4653": "Ġbouncing",
        "4654": "Ġblueberries",
        "4655": "Ġbarks",
        "4656": "vet",
        "4657": "tain",
        "4658": "ggy",
        "4659": "Will",
        "4660": "Daisy",
        "4661": "Ġtutor",
        "4662": "Ġsettle",
        "4663": "Ġscold",
        "4664": "Ġriding",
        "4665": "Ġpoison",
        "4666": "Ġmyself",
        "4667": "Ġhoping",
        "4668": "Ġheads",
        "4669": "Ġgro",
        "4670": "Ġchance",
        "4671": "Ġargue",
        "4672": "ĠFl",
        "4673": "illie",
        "4674": "acation",
        "4675": "Ready",
        "4676": "Ġvacation",
        "4677": "Ġshrugged",
        "4678": "Ġquiz",
        "4679": "Ġopera",
        "4680": "ĠFreddy",
        "4681": "ĠBinky",
        "4682": "ipment",
        "4683": "cuss",
        "4684": "asis",
        "4685": "Qu",
        "4686": "Ġweather",
        "4687": "Ġskill",
        "4688": "Ġshivering",
        "4689": "Ġseas",
        "4690": "Ġsuff",
        "4691": "Ġprints",
        "4692": "Ġmissing",
        "4693": "Ġgiggle",
        "4694": "Ġfloat",
        "4695": "Ġevening",
        "4696": "Ġequipment",
        "4697": "Ġenter",
        "4698": "Ġdiscuss",
        "4699": "Ġchores",
        "4700": "Ġburned",
        "4701": "Ġbend",
        "4702": "Ġbaking",
        "4703": "ĠSpark",
        "4704": "ĠEnd",
        "4705": "ucture",
        "4706": "noon",
        "4707": "acked",
        "4708": "Ġthanks",
        "4709": "Ġstructure",
        "4710": "Ġsty",
        "4711": "Ġreveal",
        "4712": "Ġpushing",
        "4713": "Ġprune",
        "4714": "Ġoasis",
        "4715": "Ġmention",
        "4716": "Ġinvitation",
        "4717": "Ġfixing",
        "4718": "Ġafternoon",
        "4719": "ky",
        "4720": "inking",
        "4721": "heart",
        "4722": "Ġyawned",
        "4723": "Ġwriting",
        "4724": "Ġtrusted",
        "4725": "Ġthrows",
        "4726": "Ġthrowing",
        "4727": "Ġspots",
        "4728": "Ġsocks",
        "4729": "Ġpuzzles",
        "4730": "Ġplaced",
        "4731": "Ġperfume",
        "4732": "Ġhills",
        "4733": "Ġgrand",
        "4734": "Ġdem",
        "4735": "Ġbumped",
        "4736": "ĠUnder",
        "4737": "ĠLilly",
        "4738": "sity",
        "4739": "otten",
        "4740": "ana",
        "4741": "Ann",
        "4742": "Ġtracks",
        "4743": "Ġparts",
        "4744": "Ġmall",
        "4745": "Ġluck",
        "4746": "Ġinsisted",
        "4747": "Ġcoats",
        "4748": "Ġcaptain",
        "4749": "Ġbelow",
        "4750": "Ġbeans",
        "4751": "ĠMike",
        "4752": "queaky",
        "4753": "happy",
        "4754": "ef",
        "4755": "Ch",
        "4756": "Buddy",
        "4757": "\",",
        "4758": "Ġsweetheart",
        "4759": "Ġsticky",
        "4760": "Ġshower",
        "4761": "Ġshoulder",
        "4762": "Ġsew",
        "4763": "Ġsigh",
        "4764": "Ġprinted",
        "4765": "Ġpastel",
        "4766": "Ġfollowing",
        "4767": "Ġclaw",
        "4768": "Ġcared",
        "4769": "Ġbrighter",
        "4770": "ĠMe",
        "4771": "va",
        "4772": "peedy",
        "4773": "omm",
        "4774": "ommend",
        "4775": "Not",
        "4776": "All",
        "4777": "Ġunhappy",
        "4778": "Ġteaching",
        "4779": "Ġrecommend",
        "4780": "Ġpunish",
        "4781": "Ġpanda",
        "4782": "Ġimpressed",
        "4783": "Ġgreedy",
        "4784": "Ġexpect",
        "4785": "ĠUn",
        "4786": "ĠBow",
        "4787": "uggage",
        "4788": "look",
        "4789": "iform",
        "4790": "ations",
        "4791": "Ġuniform",
        "4792": "Ġexper",
        "4793": "Ġdeeper",
        "4794": "Ġcandles",
        "4795": "Ġbeg",
        "4796": "ĠRo",
        "4797": "ĠHoppy",
        "4798": "ĠHave",
        "4799": "nce",
        "4800": "lp",
        "4801": "enry",
        "4802": "Jenny",
        "4803": "Daddy",
        "4804": "Before",
        "4805": "Ġyucky",
        "4806": "Ġweight",
        "4807": "Ġtour",
        "4808": "Ġsprayed",
        "4809": "Ġsplashing",
        "4810": "Ġsparkled",
        "4811": "Ġscore",
        "4812": "Ġluggage",
        "4813": "Ġhen",
        "4814": "Ġeasily",
        "4815": "Ġcub",
        "4816": "Ġclapping",
        "4817": "ĠPenny",
        "4818": "ĠEventually",
        "4819": "ĠChe",
        "4820": "looking",
        "4821": "ittens",
        "4822": "arnt",
        "4823": "Surpr",
        "4824": "Ġwhisper",
        "4825": "Ġsteel",
        "4826": "Ġsir",
        "4827": "Ġracing",
        "4828": "Ġlemonade",
        "4829": "Ġlearnt",
        "4830": "Ġignored",
        "4831": "Ġfollows",
        "4832": "Ġdestroyed",
        "4833": "Ġchecked",
        "4834": "ĠHelp",
        "4835": "urnit",
        "4836": "urniture",
        "4837": "ucked",
        "4838": "riage",
        "4839": "hood",
        "4840": "ecting",
        "4841": "cond",
        "4842": "ari",
        "4843": "anges",
        "4844": "Mimi",
        "4845": "Ġworms",
        "4846": "Ġwigg",
        "4847": "Ġvanished",
        "4848": "Ġupstairs",
        "4849": "Ġtremble",
        "4850": "Ġspr",
        "4851": "Ġselling",
        "4852": "Ġsecond",
        "4853": "Ġscattered",
        "4854": "Ġpermit",
        "4855": "Ġfro",
        "4856": "Ġfurniture",
        "4857": "Ġcheek",
        "4858": "Ġchirp",
        "4859": "Ġburied",
        "4860": "ĠWhenever",
        "4861": "ĠSusie",
        "4862": "ĠOlive",
        "4863": "ween",
        "4864": "uct",
        "4865": "reek",
        "4866": "iki",
        "4867": "ents",
        "4868": "Welcome",
        "4869": "Ġwhistled",
        "4870": "Ġvroom",
        "4871": "Ġstreng",
        "4872": "Ġsorting",
        "4873": "Ġreef",
        "4874": "Ġjogged",
        "4875": "Ġjail",
        "4876": "Ġentered",
        "4877": "Ġdemand",
        "4878": "Ġcreek",
        "4879": "Ġbetween",
        "4880": "Ġbadly",
        "4881": "ĠSnowy",
        "4882": "ĠIs",
        "4883": "redient",
        "4884": "laimed",
        "4885": "ingredient",
        "4886": "ides",
        "4887": "ecture",
        "4888": "Ġwre",
        "4889": "Ġthumb",
        "4890": "Ġsupply",
        "4891": "Ġstyle",
        "4892": "Ġrush",
        "4893": "Ġquite",
        "4894": "Ġpoints",
        "4895": "Ġpaid",
        "4896": "Ġmassage",
        "4897": "Ġmarble",
        "4898": "Ġlecture",
        "4899": "Ġhopes",
        "4900": "Ġexclaimed",
        "4901": "Ġcounter",
        "4902": "Ġclaws",
        "4903": "Ġbricks",
        "4904": "ĠFroggy",
        "4905": "Ġingredient",
        "4906": "ĠĊ",
        "4907": "izes",
        "4908": "Surprise",
        "4909": "Ġstrength",
        "4910": "Ġseats",
        "4911": "Ġscratch",
        "4912": "Ġrow",
        "4913": "Ġpetals",
        "4914": "Ġport",
        "4915": "Ġneighbour",
        "4916": "Ġhurting",
        "4917": "Ġgrant",
        "4918": "Ġcutting",
        "4919": "Ġclimbs",
        "4920": "Ġbreathe",
        "4921": "Ġbother",
        "4922": "ĠSqueaky",
        "4923": "ĠPr",
        "4924": "ges",
        "4925": "These",
        "4926": "Alice",
        "4927": "ĠâĢĵ",
        "4928": "Ġtug",
        "4929": "Ġshopkeeper",
        "4930": "Ġraining",
        "4931": "Ġputting",
        "4932": "Ġmenu",
        "4933": "Ġmarriage",
        "4934": "Ġcakes",
        "4935": "Ġbears",
        "4936": "Ġallow",
        "4937": "ĠWho",
        "4938": "ĠSpeedy",
        "4939": "ĠSm",
        "4940": "ĠMittens",
        "4941": "urther",
        "4942": "resses",
        "4943": "Ġworks",
        "4944": "Ġwags",
        "4945": "Ġwaving",
        "4946": "Ġstarting",
        "4947": "Ġsnail",
        "4948": "Ġprinter",
        "4949": "Ġpigs",
        "4950": "Ġingredients",
        "4951": "Ġheel",
        "4952": "Ġforgotten",
        "4953": "Ġexplored",
        "4954": "Ġagre",
        "4955": "Ġadmired",
        "4956": "ĠLola",
        "4957": "ĠGrace",
        "4958": "ĠAlex",
        "4959": "right",
        "4960": "ecially",
        "4961": "Grandma",
        "4962": "Because",
        "4963": "Ġwreck",
        "4964": "Ġwashing",
        "4965": "Ġsoc",
        "4966": "Ġshined",
        "4967": "Ġscoop",
        "4968": "Ġsailing",
        "4969": "Ġplates",
        "4970": "Ġobserve",
        "4971": "Ġjogging",
        "4972": "Ġintroduce",
        "4973": "Ġhon",
        "4974": "Ġfallen",
        "4975": "Ġfurther",
        "4976": "Ġeagerly",
        "4977": "Ġdrops",
        "4978": "Ġdifference",
        "4979": "Ġdaisy",
        "4980": "Ġbalan",
        "4981": "Ġapart",
        "4982": "ĠFinn",
        "4983": "thank",
        "4984": "specially",
        "4985": "atched",
        "4986": "Ġtuna",
        "4987": "Ġstrike",
        "4988": "Ġsoccer",
        "4989": "Ġpup",
        "4990": "Ġfloated",
        "4991": "Ġduring",
        "4992": "Ġblood",
        "4993": "Ġacted",
        "4994": "ĠSharing",
        "4995": "ĠMaggie",
        "4996": "reat",
        "4997": "icer",
        "4998": "eration",
        "4999": "Ġyawn",
        "5000": "Ġworth",
        "5001": "Ġwarning",
        "5002": "Ġwandered",
        "5003": "Ġtong",
        "5004": "Ġstudied",
        "5005": "Ġrul",
        "5006": "Ġplays",
        "5007": "Ġplanted",
        "5008": "Ġmoves",
        "5009": "Ġincrease",
        "5010": "Ġhorses",
        "5011": "Ġhighest",
        "5012": "Ġfolded",
        "5013": "Ġflapped",
        "5014": "Ġespecially",
        "5015": "Ġbuzz",
        "5016": "Ġbeauty",
        "5017": "ĠTilly",
        "5018": "ĠRemember",
        "5019": "ĠNana",
        "5020": "uesday",
        "5021": "shed",
        "5022": "reeze",
        "5023": "quest",
        "5024": "quake",
        "5025": "Bl",
        "5026": "Bella",
        "5027": "..",
        "5028": "Ġwatered",
        "5029": "Ġurge",
        "5030": "Ġshouting",
        "5031": "Ġreaches",
        "5032": "Ġpresents",
        "5033": "Ġoh",
        "5034": "Ġkingdom",
        "5035": "Ġgiven",
        "5036": "Ġfamil",
        "5037": "Ġexamine",
        "5038": "Ġconf",
        "5039": "ĠTuesday",
        "5040": "ĠOwl",
        "5041": "ĠLizzy",
        "5042": "ĠKiki",
        "5043": "ĠEverything",
        "5044": "unately",
        "5045": "raged",
        "5046": "medi",
        "5047": "mediately",
        "5048": "men",
        "5049": "bor",
        "5050": "Fred",
        "5051": "Ella",
        "5052": "Ġuniversity",
        "5053": "Ġtwisted",
        "5054": "Ġsorts",
        "5055": "Ġsolved",
        "5056": "Ġsoak",
        "5057": "Ġsnapped",
        "5058": "Ġslapped",
        "5059": "Ġscolded",
        "5060": "Ġquietly",
        "5061": "Ġlands",
        "5062": "Ġharbor",
        "5063": "Ġgifts",
        "5064": "Ġelephants",
        "5065": "Ġearthquake",
        "5066": "Ġdressed",
        "5067": "Ġbrings",
        "5068": "Ġbak",
        "5069": "ĠSee",
        "5070": "ĠCoco",
        "5071": "ĠCharlie",
        "5072": "omeday",
        "5073": "Leo",
        "5074": "Ġzigzag",
        "5075": "Ġzero",
        "5076": "Ġtongue",
        "5077": "Ġsnugg",
        "5078": "Ġsits",
        "5079": "Ġrequest",
        "5080": "Ġpur",
        "5081": "Ġinst",
        "5082": "Ġhearts",
        "5083": "Ġhadn",
        "5084": "Ġexperience",
        "5085": "Ġcurled",
        "5086": "Ġcrash",
        "5087": "ĠMilly",
        "5088": "ĠDave",
        "5089": "sterday",
        "5090": "sed",
        "5091": "pted",
        "5092": "isses",
        "5093": "esterday",
        "5094": "Everyone",
        "5095": "Emma",
        "5096": "Ġwisdom",
        "5097": "Ġwest",
        "5098": "Ġtrave",
        "5099": "Ġsliding",
        "5100": "Ġplanned",
        "5101": "Ġoranges",
        "5102": "Ġoperation",
        "5103": "Ġmemory",
        "5104": "Ġmister",
        "5105": "Ġkisses",
        "5106": "Ġimage",
        "5107": "Ġcomf",
        "5108": "ĠLe",
        "5109": "ĠKate",
        "5110": "ĠBubbles",
        "5111": "rise",
        "5112": "ipping",
        "5113": "eath",
        "5114": "do",
        "5115": "Ġworse",
        "5116": "Ġtide",
        "5117": "Ġstuffed",
        "5118": "Ġsqueezed",
        "5119": "Ġskills",
        "5120": "Ġsomeday",
        "5121": "Ġsizes",
        "5122": "Ġruler",
        "5123": "Ġprett",
        "5124": "Ġpaused",
        "5125": "Ġlicks",
        "5126": "Ġfields",
        "5127": "Ġbouncy",
        "5128": "Ġattached",
        "5129": "ĠRuby",
        "5130": "ĠGood",
        "5131": "ĠFinny",
        "5132": "ories",
        "5133": "mm",
        "5134": "atie",
        "5135": "aded",
        "5136": "Woof",
        "5137": "'ve",
        "5138": "Ġsuffer",
        "5139": "Ġsorted",
        "5140": "Ġshot",
        "5141": "Ġsince",
        "5142": "Ġrelease",
        "5143": "Ġpulling",
        "5144": "Ġmanage",
        "5145": "Ġmama",
        "5146": "Ġimagination",
        "5147": "Ġideas",
        "5148": "Ġencourage",
        "5149": "Ġcolours",
        "5150": "Ġcatching",
        "5151": "Ġcape",
        "5152": "Ġappear",
        "5153": "Ġaccepted",
        "5154": "ĠAbby",
        "5155": "Today",
        "5156": "Ha",
        "5157": "Ġzookeeper",
        "5158": "Ġwelcomed",
        "5159": "Ġtwirled",
        "5160": "Ġtonight",
        "5161": "Ġpearl",
        "5162": "Ġpeaches",
        "5163": "Ġnews",
        "5164": "Ġmeasured",
        "5165": "Ġmice",
        "5166": "Ġimmediately",
        "5167": "Ġdried",
        "5168": "Ġblankets",
        "5169": "Ġbones",
        "5170": "Ġattention",
        "5171": "ĠToto",
        "5172": "ĠRock",
        "5173": "ĠBop",
        "5174": "yth",
        "5175": "sters",
        "5176": "indy",
        "5177": "ippy",
        "5178": "house",
        "5179": "ction",
        "5180": "With",
        "5181": "Ġwhistling",
        "5182": "Ġwagging",
        "5183": "Ġtucked",
        "5184": "Ġsunrise",
        "5185": "Ġspike",
        "5186": "Ġsettled",
        "5187": "Ġseason",
        "5188": "Ġrabbits",
        "5189": "Ġpeanuts",
        "5190": "Ġmelted",
        "5191": "Ġleather",
        "5192": "Ġgrowled",
        "5193": "Ġclosely",
        "5194": "Ġcelebrated",
        "5195": "Ġcalls",
        "5196": "ĠSky",
        "5197": "ĠRos",
        "5198": "ĠPip",
        "5199": "ĠMillie",
        "5200": "ĠGeorge",
        "5201": "ĠBefore",
        "5202": "ĠBee",
        "5203": "ups",
        "5204": "ored",
        "5205": "ips",
        "5206": "etch",
        "5207": "cery",
        "5208": "Remy",
        "5209": "Ġwinning",
        "5210": "Ġtastes",
        "5211": "Ġstealing",
        "5212": "Ġsi",
        "5213": "Ġremained",
        "5214": "Ġrecognize",
        "5215": "Ġreceive",
        "5216": "Ġquack",
        "5217": "Ġours",
        "5218": "Ġmarried",
        "5219": "Ġgrocery",
        "5220": "Ġglo",
        "5221": "Ġfireman",
        "5222": "Ġdownstairs",
        "5223": "Ġdisagreed",
        "5224": "Ġdresses",
        "5225": "Ġble",
        "5226": "ĠZara",
        "5227": "ĠMo",
        "5228": "ĠHo",
        "5229": "walk",
        "5230": "unday",
        "5231": "rank",
        "5232": "ising",
        "5233": "fortunately",
        "5234": "Blue",
        "5235": "Ġzipped",
        "5236": "Ġwooden",
        "5237": "Ġunderstanding",
        "5238": "Ġtremb",
        "5239": "Ġtore",
        "5240": "Ġtoes",
        "5241": "Ġsurround",
        "5242": "Ġstro",
        "5243": "Ġstirring",
        "5244": "Ġsoaked",
        "5245": "Ġsnuggled",
        "5246": "Ġsidewalk",
        "5247": "Ġshed",
        "5248": "Ġsafari",
        "5249": "Ġpunished",
        "5250": "Ġpalm",
        "5251": "Ġmemories",
        "5252": "Ġlips",
        "5253": "Ġinf",
        "5254": "Ġgloves",
        "5255": "Ġemer",
        "5256": "Ġeasier",
        "5257": "Ġbang",
        "5258": "ĠWally",
        "5259": "ĠSteve",
        "5260": "ĠSunday",
        "5261": "ĠPat",
        "5262": "ĠHope",
        "5263": "ĠClara",
        "5264": "ythm",
        "5265": "icky",
        "5266": "icing",
        "5267": "ddy",
        "5268": "ding",
        "5269": "Bird",
        "5270": "Ġuniverse",
        "5271": "Ġstraight",
        "5272": "Ġsnowball",
        "5273": "Ġseeing",
        "5274": "Ġrang",
        "5275": "Ġpotatoes",
        "5276": "Ġisn",
        "5277": "Ġhits",
        "5278": "Ġencouraged",
        "5279": "Ġcreatures",
        "5280": "Ġcollection",
        "5281": "Ġbreaking",
        "5282": "Ġbackpack",
        "5283": "Ġbaked",
        "5284": "ĠRed",
        "5285": "ĠFox",
        "5286": "ĠDanny",
        "5287": "rr",
        "5288": "ops",
        "5289": "ien",
        "5290": "Peter",
        "5291": "Ok",
        "5292": "Ġtrembling",
        "5293": "Ġringing",
        "5294": "Ġraised",
        "5295": "Ġpirates",
        "5296": "Ġpedal",
        "5297": "Ġoffer",
        "5298": "Ġlung",
        "5299": "Ġgrin",
        "5300": "Ġgazed",
        "5301": "Ġfloating",
        "5302": "Ġflap",
        "5303": "Ġacorns",
        "5304": "ĠSuzy",
        "5305": "ĠSmith",
        "5306": "ĠRay",
        "5307": "ĠJess",
        "5308": "ĠHenry",
        "5309": "ĠAva",
        "5310": "sing",
        "5311": "ites",
        "5312": "isdom",
        "5313": "eep",
        "5314": "bles",
        "5315": "aped",
        "5316": "abies",
        "5317": "Lisa",
        "5318": "Ġwaits",
        "5319": "Ġwob",
        "5320": "Ġunlocked",
        "5321": "Ġspit",
        "5322": "Ġshouldn",
        "5323": "Ġshopping",
        "5324": "Ġrelaxed",
        "5325": "Ġpebbles",
        "5326": "Ġpad",
        "5327": "Ġmuscles",
        "5328": "Ġlandsc",
        "5329": "Ġkites",
        "5330": "Ġkicking",
        "5331": "Ġinclude",
        "5332": "Ġhers",
        "5333": "Ġflat",
        "5334": "Ġfireworks",
        "5335": "Ġfiref",
        "5336": "Ġcrawling",
        "5337": "Ġbrus",
        "5338": "Ġbites",
        "5339": "Ġbabies",
        "5340": "Ġalright",
        "5341": "ĠEach",
        "5342": "ĠBaby",
        "5343": "orted",
        "5344": "igging",
        "5345": "icorn",
        "5346": "Would",
        "5347": "Ġweb",
        "5348": "Ġwatches",
        "5349": "Ġunicorn",
        "5350": "Ġsimp",
        "5351": "Ġfamilies",
        "5352": "Ġdared",
        "5353": "Ġbrain",
        "5354": "Ġbleed",
        "5355": "Ġappro",
        "5356": "ĠZigzag",
        "5357": "ĠRobby",
        "5358": "ĠMandy",
        "5359": "ĠFollow",
        "5360": "ther",
        "5361": "kins",
        "5362": "ids",
        "5363": "ety",
        "5364": "allen",
        "5365": "Momo",
        "5366": "Ġvisited",
        "5367": "Ġtallest",
        "5368": "Ġsneak",
        "5369": "Ġshadows",
        "5370": "Ġsafety",
        "5371": "Ġresting",
        "5372": "Ġpetted",
        "5373": "Ġopin",
        "5374": "Ġmouths",
        "5375": "Ġmatched",
        "5376": "Ġkneeled",
        "5377": "Ġkeeps",
        "5378": "Ġkitty",
        "5379": "Ġinstr",
        "5380": "Ġgirls",
        "5381": "Ġexit",
        "5382": "Ġdrinking",
        "5383": "Ġdigging",
        "5384": "Ġchewing",
        "5385": "Ġchallen",
        "5386": "Ġbeds",
        "5387": "Ġbreeze",
        "5388": "ĠSun",
        "5389": "ĠRosie",
        "5390": "ĠJames",
        "5391": "umes",
        "5392": "uzz",
        "5393": "rec",
        "5394": "lvet",
        "5395": "ler",
        "5396": "ishy",
        "5397": "ishing",
        "5398": "elle",
        "5399": "Ġweeping",
        "5400": "Ġweighed",
        "5401": "Ġvelvet",
        "5402": "Ġvet",
        "5403": "Ġunderground",
        "5404": "Ġstudying",
        "5405": "Ġstitch",
        "5406": "Ġsilence",
        "5407": "Ġserved",
        "5408": "Ġplaytime",
        "5409": "Ġpiles",
        "5410": "Ġordered",
        "5411": "Ġnone",
        "5412": "Ġmuddy",
        "5413": "Ġlaid",
        "5414": "Ġlined",
        "5415": "Ġdisagree",
        "5416": "Ġcartoons",
        "5417": "Ġamazement",
        "5418": "ĠZoe",
        "5419": "ĠThese",
        "5420": "ĠSlow",
        "5421": "ĠMaria",
        "5422": "ĠMel",
        "5423": "ĠKing",
        "5424": "reci",
        "5425": "oral",
        "5426": "chie",
        "5427": "avid",
        "5428": "Tr",
        "5429": "!\",",
        "5430": "!'",
        "5431": "Ġwinner",
        "5432": "Ġvanish",
        "5433": "Ġtwink",
        "5434": "Ġtreasures",
        "5435": "Ġspoons",
        "5436": "Ġsigns",
        "5437": "Ġsetting",
        "5438": "Ġroots",
        "5439": "Ġroads",
        "5440": "Ġrepeated",
        "5441": "Ġnowhere",
        "5442": "Ġnapping",
        "5443": "Ġmixing",
        "5444": "Ġlick",
        "5445": "Ġlandscape",
        "5446": "Ġgust",
        "5447": "Ġcrunch",
        "5448": "Ġcostumes",
        "5449": "Ġbye",
        "5450": "Ġappreci",
        "5451": "ĠSomething",
        "5452": "ĠNot",
        "5453": "ĠLucky",
        "5454": "rs",
        "5455": "oved",
        "5456": "izing",
        "5457": "coon",
        "5458": "aved",
        "5459": "Yum",
        "5460": "Thanks",
        "5461": "Johnny",
        "5462": "Bobby",
        "5463": ".'",
        "5464": "Ġvoices",
        "5465": "Ġurged",
        "5466": "Ġstrang",
        "5467": "Ġsisters",
        "5468": "Ġsausages",
        "5469": "Ġsix",
        "5470": "Ġsip",
        "5471": "Ġrhythm",
        "5472": "Ġpinched",
        "5473": "Ġpets",
        "5474": "Ġperfectly",
        "5475": "Ġjazz",
        "5476": "Ġimportance",
        "5477": "Ġhappiest",
        "5478": "Ġemergen",
        "5479": "Ġdecorations",
        "5480": "Ġdecorated",
        "5481": "ĠWisdom",
        "5482": "ĠTony",
        "5483": "ĠLater",
        "5484": "ĠBouncy",
        "5485": "ĠBree",
        "5486": "ĠQu",
        "5487": "umble",
        "5488": "shion",
        "5489": "oys",
        "5490": "Sp",
        "5491": "Ġwaist",
        "5492": "Ġwink",
        "5493": "Ġresult",
        "5494": "Ġprepared",
        "5495": "Ġpatterns",
        "5496": "Ġpra",
        "5497": "Ġmentioned",
        "5498": "Ġlets",
        "5499": "Ġlily",
        "5500": "Ġknights",
        "5501": "Ġinfant",
        "5502": "Ġguessed",
        "5503": "Ġfashion",
        "5504": "Ġdraws",
        "5505": "Ġdire",
        "5506": "Ġclearing",
        "5507": "Ġagreement",
        "5508": "ĠTed",
        "5509": "ĠPeanut",
        "5510": "ĠOut",
        "5511": "ĠHarry",
        "5512": "ssible",
        "5513": "plash",
        "5514": "oming",
        "5515": "isten",
        "5516": "irts",
        "5517": "iers",
        "5518": "hello",
        "5519": "ena",
        "5520": "Sammy",
        "5521": "Happy",
        "5522": "Dog",
        "5523": "Ġwaffles",
        "5524": "Ġturning",
        "5525": "Ġthrill",
        "5526": "Ġstrangers",
        "5527": "Ġsprink",
        "5528": "Ġscru",
        "5529": "Ġpoems",
        "5530": "Ġphot",
        "5531": "Ġourselves",
        "5532": "Ġnoon",
        "5533": "Ġmoments",
        "5534": "Ġmarks",
        "5535": "Ġknown",
        "5536": "Ġhurried",
        "5537": "Ġescaped",
        "5538": "Ġeagle",
        "5539": "Ġcrunchy",
        "5540": "Ġbeard",
        "5541": "Ġadmir",
        "5542": "ĠLiz",
        "5543": "ĠFrank",
        "5544": "ĠBoth",
        "5545": "zen",
        "5546": "ship",
        "5547": "please",
        "5548": "ities",
        "5549": "antly",
        "5550": "Sophie",
        "5551": "Moral",
        "5552": "Jen",
        "5553": "Emily",
        "5554": "Ġspending",
        "5555": "Ġsoldiers",
        "5556": "Ġruin",
        "5557": "Ġripped",
        "5558": "Ġpillows",
        "5559": "Ġpeel",
        "5560": "Ġlogs",
        "5561": "Ġlimes",
        "5562": "Ġgrinned",
        "5563": "Ġgran",
        "5564": "Ġgoals",
        "5565": "Ġfrozen",
        "5566": "Ġforgi",
        "5567": "Ġfetch",
        "5568": "Ġexpected",
        "5569": "Ġdisturbed",
        "5570": "Ġcuddled",
        "5571": "Ġcrashed",
        "5572": "Ġbravely",
        "5573": "Ġbrid",
        "5574": "Ġbowed",
        "5575": "Ġbehaved",
        "5576": "Ġapologized",
        "5577": "ĠWatch",
        "5578": "ĠPrin",
        "5579": "ĠCar",
        "5580": "vest",
        "5581": "uddles",
        "5582": "tory",
        "5583": "ishes",
        "5584": "ived",
        "5585": "ded",
        "5586": "acob",
        "5587": "Cat",
        "5588": "Ġstruggle",
        "5589": "Ġphotos",
        "5590": "Ġmatching",
        "5591": "Ġlines",
        "5592": "Ġknelt",
        "5593": "Ġhistory",
        "5594": "Ġguy",
        "5595": "Ġgained",
        "5596": "Ġfishing",
        "5597": "Ġemergency",
        "5598": "Ġdads",
        "5599": "Ġcollecting",
        "5600": "Ġbeneath",
        "5601": "ĠJoey",
        "5602": "ĠDid",
        "5603": "ĠCuddles",
        "5604": "xture",
        "5605": "ud",
        "5606": "omas",
        "5607": "ctly",
        "5608": "choo",
        "5609": "arth",
        "5610": "Watch",
        "5611": "Goodbye",
        "5612": "Ġwondering",
        "5613": "Ġwarmth",
        "5614": "Ġtrapped",
        "5615": "Ġtexture",
        "5616": "Ġsore",
        "5617": "Ġsoared",
        "5618": "Ġslice",
        "5619": "Ġskipping",
        "5620": "Ġrested",
        "5621": "Ġresp",
        "5622": "Ġpies",
        "5623": "Ġmeow",
        "5624": "Ġitem",
        "5625": "Ġhes",
        "5626": "Ġdrinks",
        "5627": "Ġdragons",
        "5628": "Ġcollected",
        "5629": "Ġchallenge",
        "5630": "Ġburning",
        "5631": "Ġbuildings",
        "5632": "Ġbridges",
        "5633": "Ġbegged",
        "5634": "Ġbeat",
        "5635": "Ġanswers",
        "5636": "ĠRocky",
        "5637": "ĠJosh",
        "5638": "ĠIts",
        "5639": "ĠHop",
        "5640": "ales",
        "5641": "Ducky",
        "5642": "Andy",
        "5643": "Ġwiggle",
        "5644": "Ġthreat",
        "5645": "Ġstamps",
        "5646": "Ġsimple",
        "5647": "Ġscreams",
        "5648": "Ġscratched",
        "5649": "Ġscaring",
        "5650": "Ġpraised",
        "5651": "Ġopinion",
        "5652": "Ġlied",
        "5653": "Ġkindly",
        "5654": "Ġcrabs",
        "5655": "Ġapproached",
        "5656": "Ġago",
        "5657": "ĠSof",
        "5658": "ĠHappy",
        "5659": "ĠBug",
        "5660": "ĠBo",
        "5661": "utter",
        "5662": "ury",
        "5663": "iti",
        "5664": "ica",
        "5665": "hind",
        "5666": "emb",
        "5667": "bug",
        "5668": "akes",
        "5669": "Miss",
        "5670": "Ġwonders",
        "5671": "Ġtwigs",
        "5672": "Ġtheirs",
        "5673": "Ġteasing",
        "5674": "Ġsparkling",
        "5675": "Ġscrubbed",
        "5676": "Ġolives",
        "5677": "Ġneighborhood",
        "5678": "Ġladybug",
        "5679": "Ġgolden",
        "5680": "Ġgathering",
        "5681": "Ġeast",
        "5682": "Ġcomfy",
        "5683": "Ġbrushed",
        "5684": "Ġboom",
        "5685": "Ġblink",
        "5686": "ĠStop",
        "5687": "ĠStitch",
        "5688": "ĠKatie",
        "5689": "zing",
        "5690": "vestig",
        "5691": "mare",
        "5692": "lier",
        "5693": "ino",
        "5694": "embers",
        "5695": "bbing",
        "5696": "Really",
        "5697": "Eventually",
        "5698": "Benny",
        "5699": "Ġteaches",
        "5700": "Ġtim",
        "5701": "Ġstrings",
        "5702": "Ġsting",
        "5703": "Ġslim",
        "5704": "Ġshoulders",
        "5705": "Ġropes",
        "5706": "Ġremembers",
        "5707": "Ġnightmare",
        "5708": "Ġmuffins",
        "5709": "Ġjoking",
        "5710": "Ġinvestig",
        "5711": "Ġherbs",
        "5712": "Ġgranted",
        "5713": "Ġgaze",
        "5714": "Ġfed",
        "5715": "Ġeff",
        "5716": "Ġcopy",
        "5717": "Ġbroom",
        "5718": "Ġbeamed",
        "5719": "Ġann",
        "5720": "ĠLou",
        "5721": "ĠDare",
        "5722": "ĠCatty",
        "5723": "ĠBeing",
        "5724": "wh",
        "5725": "urry",
        "5726": "uest",
        "5727": "riends",
        "5728": "osed",
        "5729": "ogo",
        "5730": "anny",
        "5731": "ados",
        "5732": "Sandy",
        "5733": "Poppy",
        "5734": "Mmm",
        "5735": "Ġzooming",
        "5736": "Ġwrites",
        "5737": "Ġtwin",
        "5738": "Ġtrips",
        "5739": "Ġthrilled",
        "5740": "Ġswims",
        "5741": "Ġsparkle",
        "5742": "Ġsneaked",
        "5743": "Ġslimy",
        "5744": "Ġshock",
        "5745": "Ġroaring",
        "5746": "Ġrefu",
        "5747": "Ġrecorded",
        "5748": "Ġreceived",
        "5749": "Ġpencils",
        "5750": "Ġpedals",
        "5751": "Ġparties",
        "5752": "Ġmarching",
        "5753": "Ġloose",
        "5754": "Ġinvestigate",
        "5755": "Ġhissed",
        "5756": "Ġheaded",
        "5757": "Ġhardly",
        "5758": "Ġgrey",
        "5759": "Ġglowed",
        "5760": "Ġeats",
        "5761": "Ġdoggy",
        "5762": "Ġdot",
        "5763": "Ġcubes",
        "5764": "Ġcreated",
        "5765": "Ġbrushes",
        "5766": "Ġavocados",
        "5767": "Ġargued",
        "5768": "Ġalien",
        "5769": "Ġairpl",
        "5770": "Ġactiv",
        "5771": "Ġawe",
        "5772": "ĠSparky",
        "5773": "ĠSomeone",
        "5774": "ĠPinky",
        "5775": "ĠMissile",
        "5776": "ĠMay",
        "5777": "ĠIzzy",
        "5778": "ĠHenny",
        "5779": "ĠAlways",
        "5780": "xury",
        "5781": "ulie",
        "5782": "uxury",
        "5783": "uke",
        "5784": "ppers",
        "5785": "mother",
        "5786": "iam",
        "5787": "elvet",
        "5788": "araway",
        "5789": "allow",
        "5790": "ah",
        "5791": "Un",
        "5792": "ĠâĢĺ",
        "5793": "Ġyouth",
        "5794": "Ġwears",
        "5795": "Ġwed",
        "5796": "Ġtraveled",
        "5797": "Ġtugged",
        "5798": "Ġsweeties",
        "5799": "Ġsupposed",
        "5800": "Ġstudents",
        "5801": "Ġstretching",
        "5802": "Ġsticking",
        "5803": "Ġsteep",
        "5804": "Ġscreaming",
        "5805": "Ġremoved",
        "5806": "Ġremote",
        "5807": "Ġradishes",
        "5808": "Ġpots",
        "5809": "Ġnicer",
        "5810": "Ġmountains",
        "5811": "Ġmelting",
        "5812": "Ġmarbles",
        "5813": "Ġmaster",
        "5814": "Ġloving",
        "5815": "Ġleader",
        "5816": "Ġkeeper",
        "5817": "Ġjewels",
        "5818": "Ġinch",
        "5819": "Ġhealed",
        "5820": "Ġguest",
        "5821": "Ġfaraway",
        "5822": "Ġeffort",
        "5823": "Ġdestination",
        "5824": "Ġdecides",
        "5825": "Ġchirped",
        "5826": "Ġcheering",
        "5827": "Ġcrow",
        "5828": "Ġbalancing",
        "5829": "Ġarea",
        "5830": "ĠTw",
        "5831": "ĠTiti",
        "5832": "ĠSqu",
        "5833": "ĠSplash",
        "5834": "ĠFirst",
        "5835": "ĠDodo",
        "5836": "ĠCindy",
        "5837": "ĠAnnie",
        "5838": "âĢĿ.",
        "5839": "osity",
        "5840": "loe",
        "5841": "ission",
        "5842": "hee",
        "5843": "True",
        "5844": "Time",
        "5845": "Shh",
        "5846": "Ollie",
        "5847": "James",
        "5848": "Cl",
        "5849": "Ġyelling",
        "5850": "Ġtricked",
        "5851": "Ġstripes",
        "5852": "Ġsnakes",
        "5853": "Ġsled",
        "5854": "Ġsitu",
        "5855": "Ġrevealed",
        "5856": "Ġrealize",
        "5857": "Ġpraying",
        "5858": "Ġprop",
        "5859": "Ġpolished",
        "5860": "Ġowned",
        "5861": "Ġmonsters",
        "5862": "Ġhated",
        "5863": "Ġhitting",
        "5864": "Ġdeser",
        "5865": "Ġdelivered",
        "5866": "Ġclaps",
        "5867": "Ġcough",
        "5868": "Ġbuckets",
        "5869": "ĠSad",
        "5870": "ĠMoon",
        "5871": "ĠMon",
        "5872": "ĠCra",
        "5873": "ĠYes",
        "5874": "jam",
        "5875": "boo",
        "5876": "aws",
        "5877": "avi",
        "5878": "agull",
        "5879": "affes",
        "5880": "Ex",
        "5881": "Boo",
        "5882": "Ġwherever",
        "5883": "Ġtickle",
        "5884": "Ġtalent",
        "5885": "Ġstaying",
        "5886": "Ġseems",
        "5887": "Ġsecrets",
        "5888": "Ġseagull",
        "5889": "Ġsafer",
        "5890": "Ġprovided",
        "5891": "Ġpermission",
        "5892": "Ġparked",
        "5893": "Ġopening",
        "5894": "Ġmeasuring",
        "5895": "Ġmane",
        "5896": "Ġluxury",
        "5897": "Ġgiraffes",
        "5898": "Ġfrost",
        "5899": "Ġfears",
        "5900": "Ġfaced",
        "5901": "Ġearlier",
        "5902": "Ġcuts",
        "5903": "Ġcontinue",
        "5904": "Ġcomplaining",
        "5905": "Ġcrew",
        "5906": "Ġbeside",
        "5907": "Ġbakery",
        "5908": "ĠVelvet",
        "5909": "ĠTuna",
        "5910": "ĠJacob",
        "5911": "ĠChicky",
        "5912": "ĠBoo",
        "5913": "ĠAn",
        "5914": "ĠOnce",
        "5915": "Ġ1",
        "5916": "usty",
        "5917": "ues",
        "5918": "mies",
        "5919": "isty",
        "5920": "int",
        "5921": "ifi",
        "5922": "ha",
        "5923": "esome",
        "5924": "cus",
        "5925": "anging",
        "5926": "Rob",
        "5927": "Ro",
        "5928": "Rex",
        "5929": "Meow",
        "5930": "'.",
        "5931": "Ġwindy",
        "5932": "Ġtouching",
        "5933": "Ġtails",
        "5934": "Ġsweat",
        "5935": "Ġstruggled",
        "5936": "Ġshooting",
        "5937": "Ġrule",
        "5938": "Ġrefuse",
        "5939": "Ġrele",
        "5940": "Ġpupil",
        "5941": "Ġproper",
        "5942": "Ġpans",
        "5943": "Ġpaints",
        "5944": "Ġmagnets",
        "5945": "Ġhorns",
        "5946": "Ġheroes",
        "5947": "Ġfeeding",
        "5948": "Ġdusty",
        "5949": "Ġdiscovery",
        "5950": "Ġdarker",
        "5951": "Ġcandies",
        "5952": "Ġbleeding",
        "5953": "Ġbare",
        "5954": "Ġawesome",
        "5955": "Ġadmiring",
        "5956": "Ġactually",
        "5957": "Ġactions",
        "5958": "Ġacting",
        "5959": "ĠEarth",
        "5960": "ĠDuck",
        "5961": "ĠDavid",
        "5962": "uckily",
        "5963": "quid",
        "5964": "pie",
        "5965": "ouch",
        "5966": "ora",
        "5967": "ners",
        "5968": "ls",
        "5969": "iar",
        "5970": "dies",
        "5971": "anta",
        "5972": "aster",
        "5973": "Stay",
        "5974": "Jo",
        "5975": "Ġweeks",
        "5976": "Ġwedding",
        "5977": "Ġwasted",
        "5978": "Ġwanting",
        "5979": "Ġwiz",
        "5980": "Ġvalued",
        "5981": "Ġvict",
        "5982": "Ġtwisty",
        "5983": "Ġtune",
        "5984": "Ġtoss",
        "5985": "Ġtimer",
        "5986": "Ġteamwork",
        "5987": "Ġsurrounded",
        "5988": "Ġstruggling",
        "5989": "Ġspraying",
        "5990": "Ġspaceship",
        "5991": "Ġsneaky",
        "5992": "Ġshrug",
        "5993": "Ġrestored",
        "5994": "Ġprettiest",
        "5995": "Ġpatiently",
        "5996": "Ġonwards",
        "5997": "Ġobe",
        "5998": "Ġneighbourhood",
        "5999": "Ġneighbors",
        "6000": "Ġliquid",
        "6001": "Ġhesit",
        "6002": "Ġhelmets",
        "6003": "Ġglasses",
        "6004": "Ġfoods",
        "6005": "Ġflags",
        "6006": "Ġdinosaurs",
        "6007": "Ġdied",
        "6008": "Ġcreation",
        "6009": "Ġcontest",
        "6010": "Ġcontain",
        "6011": "Ġcompany",
        "6012": "Ġbedtime",
        "6013": "Ġawake",
        "6014": "ĠWater",
        "6015": "ĠRover",
        "6016": "ĠRe",
        "6017": "ĠKids",
        "6018": "ĠDino",
        "6019": "ĠBye",
        "6020": "screen",
        "6021": "rian",
        "6022": "lee",
        "6023": "go",
        "6024": "enty",
        "6025": "compl",
        "6026": "band",
        "6027": "ashed",
        "6028": "amie",
        "6029": "ads",
        "6030": "Tiny",
        "6031": "George",
        "6032": "Ew",
        "6033": "Ġworker",
        "6034": "Ġsucceeded",
        "6035": "Ġstare",
        "6036": "Ġsights",
        "6037": "Ġsiren",
        "6038": "Ġscooters",
        "6039": "Ġsings",
        "6040": "Ġrecognized",
        "6041": "Ġquacked",
        "6042": "Ġproject",
        "6043": "Ġpride",
        "6044": "Ġpolishing",
        "6045": "Ġpoking",
        "6046": "Ġpaying",
        "6047": "Ġpaintings",
        "6048": "Ġobey",
        "6049": "Ġloaded",
        "6050": "Ġinsist",
        "6051": "Ġglitter",
        "6052": "Ġfrosting",
        "6053": "Ġcrept",
        "6054": "Ġchef",
        "6055": "Ġcatches",
        "6056": "Ġbloomed",
        "6057": "Ġappreciate",
        "6058": "Ġachie",
        "6059": "ĠSpring",
        "6060": "ĠSlowly",
        "6061": "ĠSanta",
        "6062": "ĠQuick",
        "6063": "ĠLike",
        "6064": "ĠKeep",
        "6065": "ĠKay",
        "6066": "ĠX",
        "6067": "ulp",
        "6068": "uffin",
        "6069": "uctions",
        "6070": "scin",
        "6071": "nie",
        "6072": "ays",
        "6073": "Whiskers",
        "6074": "Remember",
        "6075": "Pete",
        "6076": "Paul",
        "6077": "Mrs",
        "6078": "During",
        "6079": "...\"",
        "6080": "Ġtraded",
        "6081": "Ġthud",
        "6082": "Ġsplashes",
        "6083": "Ġsighs",
        "6084": "Ġseven",
        "6085": "Ġscooped",
        "6086": "Ġscattering",
        "6087": "Ġribbons",
        "6088": "Ġrescued",
        "6089": "Ġprec",
        "6090": "Ġpenguins",
        "6091": "Ġpears",
        "6092": "Ġpeppers",
        "6093": "Ġpatience",
        "6094": "Ġpassports",
        "6095": "Ġnails",
        "6096": "Ġmittens",
        "6097": "Ġmes",
        "6098": "Ġinstructions",
        "6099": "Ġhonk",
        "6100": "Ġhi",
        "6101": "Ġguys",
        "6102": "Ġflutter",
        "6103": "Ġflav",
        "6104": "Ġfascin",
        "6105": "Ġeight",
        "6106": "Ġdiving",
        "6107": "Ġdemanded",
        "6108": "Ġcushions",
        "6109": "Ġcones",
        "6110": "Ġcomple",
        "6111": "Ġcomm",
        "6112": "Ġcelebration",
        "6113": "Ġbringing",
        "6114": "Ġblows",
        "6115": "Ġblooming",
        "6116": "Ġbeads",
        "6117": "Ġbalanced",
        "6118": "Ġairplane",
        "6119": "Ġaccompl",
        "6120": "ĠLuke",
        "6121": "ĠLenny",
        "6122": "ĠJessie",
        "6123": "ĠFrog",
        "6124": "ĠFifi",
        "6125": "ĠEveryday",
        "6126": "ĠDr",
        "6127": "ĠBlink",
        "6128": "ĠAlly",
        "6129": "zie",
        "6130": "ults",
        "6131": "uctantly",
        "6132": "lets",
        "6133": "lict",
        "6134": "iggy",
        "6135": "die",
        "6136": "big",
        "6137": "Zoomy",
        "6138": "Uh",
        "6139": "Our",
        "6140": "Luna",
        "6141": "Jake",
        "6142": "Have",
        "6143": "Fo",
        "6144": "First",
        "6145": "Bad",
        "6146": "Achoo",
        "6147": "Ġwizard",
        "6148": "Ġvisiting",
        "6149": "Ġvillag",
        "6150": "Ġusual",
        "6151": "Ġuntie",
        "6152": "Ġunf",
        "6153": "Ġtodd",
        "6154": "Ġstarfish",
        "6155": "Ġscales",
        "6156": "Ġsadness",
        "6157": "Ġreminder",
        "6158": "Ġrefre",
        "6159": "Ġpurred",
        "6160": "Ġprotecting",
        "6161": "Ġprotected",
        "6162": "Ġpause",
        "6163": "Ġorganizing",
        "6164": "Ġofficer",
        "6165": "Ġoat",
        "6166": "Ġmission",
        "6167": "Ġlearns",
        "6168": "Ġlaying",
        "6169": "Ġhomework",
        "6170": "Ġgoodnight",
        "6171": "Ġfroze",
        "6172": "Ġexplorers",
        "6173": "Ġexamined",
        "6174": "Ġdrives",
        "6175": "Ġconflict",
        "6176": "Ġbaker",
        "6177": "Ġbackward",
        "6178": "Ġboo",
        "6179": "Ġapplauded",
        "6180": "Ġapologize",
        "6181": "ĠMuffin",
        "6182": "ĠLeave",
        "6183": "ĠGogo",
        "6184": "ĠFriends",
        "6185": "ĠBehind",
        "6186": "step",
        "6187": "rance",
        "6188": "ords",
        "6189": "jo",
        "6190": "iders",
        "6191": "ern",
        "6192": "bigail",
        "6193": "bbled",
        "6194": "bl",
        "6195": "arter",
        "6196": "actly",
        "6197": "aa",
        "6198": "Tweet",
        "6199": "Somet",
        "6200": "Ġyesterday",
        "6201": "Ġwins",
        "6202": "Ġwhatever",
        "6203": "Ġwound",
        "6204": "Ġvictory",
        "6205": "Ġtoddler",
        "6206": "Ġstruck",
        "6207": "Ġspikes",
        "6208": "Ġspells",
        "6209": "Ġsmiley",
        "6210": "Ġsmallest",
        "6211": "Ġsmarter",
        "6212": "Ġshivered",
        "6213": "Ġrides",
        "6214": "Ġreleased",
        "6215": "Ġreluctantly",
        "6216": "Ġrecording",
        "6217": "Ġprettier",
        "6218": "Ġplanets",
        "6219": "Ġpastels",
        "6220": "Ġmuscle",
        "6221": "Ġleading",
        "6222": "Ġhelpers",
        "6223": "Ġguns",
        "6224": "Ġfirefight",
        "6225": "Ġfigures",
        "6226": "Ġdragged",
        "6227": "Ġdipped",
        "6228": "Ġcracked",
        "6229": "Ġchanging",
        "6230": "Ġcause",
        "6231": "Ġbarely",
        "6232": "ĠYesterday",
        "6233": "ĠThomas",
        "6234": "ĠPippa",
        "6235": "ĠPepper",
        "6236": "ĠMoo",
        "6237": "ĠLove",
        "6238": "ĠJessica",
        "6239": "ĠJenna",
        "6240": "ĠHopper",
        "6241": "ĠGreen",
        "6242": "ĠGr",
        "6243": "ĠGet",
        "6244": "ĠElephant",
        "6245": "ĠChloe",
        "6246": "ĠBeep",
        "6247": "ĠAm",
        "6248": "ĠQ",
        "6249": "nies",
        "6250": "jamas",
        "6251": "ho",
        "6252": "anna",
        "6253": "Teddy",
        "6254": "Ste",
        "6255": "Silly",
        "6256": "Millie",
        "6257": "Jerry",
        "6258": "Grandpa",
        "6259": "An",
        "6260": "Ġwarnings",
        "6261": "Ġvent",
        "6262": "Ġunited",
        "6263": "Ġsunlight",
        "6264": "Ġstole",
        "6265": "Ġstern",
        "6266": "Ġsprinkles",
        "6267": "Ġshirts",
        "6268": "Ġrockets",
        "6269": "Ġreply",
        "6270": "Ġrings",
        "6271": "Ġprecious",
        "6272": "Ġpacking",
        "6273": "Ġinviting",
        "6274": "Ġhugging",
        "6275": "Ġfiremen",
        "6276": "Ġexactly",
        "6277": "Ġdelivering",
        "6278": "Ġdie",
        "6279": "Ġdam",
        "6280": "Ġcovers",
        "6281": "Ġclick",
        "6282": "Ġcous",
        "6283": "Ġbuzzing",
        "6284": "Ġbowls",
        "6285": "Ġbehavi",
        "6286": "Ġbecoming",
        "6287": "Ġbank",
        "6288": "Ġanytime",
        "6289": "Ġannoy",
        "6290": "ĠSquirrel",
        "6291": "ĠSure",
        "6292": "ĠRobert",
        "6293": "ĠRollie",
        "6294": "ĠRabbit",
        "6295": "ĠPrincess",
        "6296": "ĠMeg",
        "6297": "ĠMarie",
        "6298": "ĠHippy",
        "6299": "ĠGir",
        "6300": "ĠChew",
        "6301": "ĠBetsy",
        "6302": "ueen",
        "6303": "uly",
        "6304": "rink",
        "6305": "irm",
        "6306": "iding",
        "6307": "guing",
        "6308": "fied",
        "6309": "eah",
        "6310": "bly",
        "6311": "Unfortunately",
        "6312": "Su",
        "6313": "Oops",
        "6314": "Milly",
        "6315": "Ah",
        "6316": "Ġwraps",
        "6317": "Ġwiggled",
        "6318": "Ġwhose",
        "6319": "Ġweren",
        "6320": "Ġwid",
        "6321": "Ġvillagers",
        "6322": "Ġvines",
        "6323": "Ġtickets",
        "6324": "Ġsports",
        "6325": "Ġsparkles",
        "6326": "Ġsnowballs",
        "6327": "Ġsituation",
        "6328": "Ġseparated",
        "6329": "Ġsending",
        "6330": "Ġsense",
        "6331": "Ġrefle",
        "6332": "Ġquarreling",
        "6333": "Ġprincesses",
        "6334": "Ġpossible",
        "6335": "Ġpeered",
        "6336": "Ġpeas",
        "6337": "Ġpajamas",
        "6338": "Ġpins",
        "6339": "Ġmisses",
        "6340": "Ġmasks",
        "6341": "Ġjoked",
        "6342": "Ġintroduc",
        "6343": "Ġgotten",
        "6344": "Ġfault",
        "6345": "Ġcuddle",
        "6346": "Ġcomplained",
        "6347": "Ġcocoon",
        "6348": "Ġchips",
        "6349": "Ġarrive",
        "6350": "Ġarguing",
        "6351": "Ġactivities",
        "6352": "ĠUnfortunately",
        "6353": "ĠTurtle",
        "6354": "ĠTop",
        "6355": "ĠStar",
        "6356": "ĠRobo",
        "6357": "ĠQueen",
        "6358": "ĠPo",
        "6359": "ĠJoy",
        "6360": "ĠJilly",
        "6361": "ĠHor",
        "6362": "ĠDara",
        "6363": "ĠBuggy",
        "6364": "ĠBy",
        "6365": "ĠBecause",
        "6366": "rey",
        "6367": "dam",
        "6368": "cuse",
        "6369": "bric",
        "6370": "atches",
        "6371": "anie",
        "6372": "Ru",
        "6373": "Or",
        "6374": "Mar",
        "6375": "Mandy",
        "6376": "Lilly",
        "6377": "Dave",
        "6378": "Buzz",
        "6379": "Ġyells",
        "6380": "Ġwidened",
        "6381": "Ġwoof",
        "6382": "Ġtwirl",
        "6383": "Ġtricky",
        "6384": "Ġtravell",
        "6385": "Ġtractor",
        "6386": "Ġtruly",
        "6387": "Ġthro",
        "6388": "Ġteased",
        "6389": "Ġsuperheroes",
        "6390": "Ġstartled",
        "6391": "Ġspins",
        "6392": "Ġspiders",
        "6393": "Ġsomebody",
        "6394": "Ġsnatched",
        "6395": "Ġscarves",
        "6396": "Ġsides",
        "6397": "Ġrequested",
        "6398": "Ġrainbows",
        "6399": "Ġproperly",
        "6400": "Ġpowers",
        "6401": "Ġpockets",
        "6402": "Ġplenty",
        "6403": "Ġperched",
        "6404": "Ġpaths",
        "6405": "Ġpout",
        "6406": "Ġnaps",
        "6407": "Ġmotion",
        "6408": "Ġmailed",
        "6409": "Ġknocks",
        "6410": "Ġkicks",
        "6411": "Ġitems",
        "6412": "Ġitchy",
        "6413": "Ġincreased",
        "6414": "Ġimproved",
        "6415": "Ġhus",
        "6416": "Ġgrowling",
        "6417": "Ġgroups",
        "6418": "Ġgreet",
        "6419": "Ġgrandmother",
        "6420": "Ġgri",
        "6421": "Ġforgiving",
        "6422": "Ġforehead",
        "6423": "Ġfascinated",
        "6424": "Ġfarther",
        "6425": "Ġfabric",
        "6426": "Ġfirm",
        "6427": "Ġdiscovering",
        "6428": "Ġcuriosity",
        "6429": "Ġcuddly",
        "6430": "Ġcompleted",
        "6431": "Ġchoices",
        "6432": "Ġchirping",
        "6433": "Ġcaused",
        "6434": "Ġbrand",
        "6435": "Ġbounces",
        "6436": "Ġblocking",
        "6437": "Ġbiting",
        "6438": "Ġbells",
        "6439": "Ġbelly",
        "6440": "ĠZipper",
        "6441": "ĠWant",
        "6442": "ĠTara",
        "6443": "ĠStay",
        "6444": "ĠSnowman",
        "6445": "ĠLena",
        "6446": "ĠHoot",
        "6447": "ĠGiraffe",
        "6448": "ĠFoxy",
        "6449": "ĠFishy",
        "6450": "ĠEn",
        "6451": "ĠChess",
        "6452": "ĠBarry",
        "6453": "vin",
        "6454": "uture",
        "6455": "though",
        "6456": "steps",
        "6457": "seek",
        "6458": "inkle",
        "6459": "ining",
        "6460": "eff",
        "6461": "anes",
        "6462": "aker",
        "6463": "Yeah",
        "6464": "Sometimes",
        "6465": "Pe",
        "6466": "Listen",
        "6467": "Hold",
        "6468": "Excuse",
        "6469": "Charlie",
        "6470": "Ġworries",
        "6471": "Ġusually",
        "6472": "Ġtunnels",
        "6473": "Ġthroat",
        "6474": "Ġswoop",
        "6475": "Ġswit",
        "6476": "Ġstands",
        "6477": "Ġsobbed",
        "6478": "Ġsoaring",
        "6479": "Ġshrinking",
        "6480": "Ġrocking",
        "6481": "Ġrip",
        "6482": "Ġrewarded",
        "6483": "Ġreaching",
        "6484": "Ġpromises",
        "6485": "Ġpops",
        "6486": "Ġpoliceman",
        "6487": "Ġpolar",
        "6488": "Ġpointy",
        "6489": "Ġobserved",
        "6490": "Ġneither",
        "6491": "Ġnine",
        "6492": "Ġlistens",
        "6493": "Ġimages",
        "6494": "Ġhonked",
        "6495": "Ġhandful",
        "6496": "Ġhallway",
        "6497": "Ġgiggling",
        "6498": "Ġfolding",
        "6499": "Ġfuture",
        "6500": "Ġdirection",
        "6501": "Ġdived",
        "6502": "Ġdar",
        "6503": "Ġcurtains",
        "6504": "Ġcreating",
        "6505": "Ġchases",
        "6506": "Ġbuzzed",
        "6507": "Ġbehaving",
        "6508": "Ġbur",
        "6509": "ĠWoo",
        "6510": "ĠUncle",
        "6511": "ĠTruck",
        "6512": "ĠSparkle",
        "6513": "ĠShadow",
        "6514": "ĠSay",
        "6515": "ĠPrince",
        "6516": "ĠPut",
        "6517": "ĠPatch",
        "6518": "ĠOak",
        "6519": "ĠHolly",
        "6520": "ĠBrownie",
        "6521": "âĢĶ",
        "6522": "yond",
        "6523": "ustom",
        "6524": "urried",
        "6525": "une",
        "6526": "tuce",
        "6527": "onge",
        "6528": "nk",
        "6529": "lowers",
        "6530": "lay",
        "6531": "iggie",
        "6532": "ido",
        "6533": "eds",
        "6534": "cakes",
        "6535": "blings",
        "6536": "bie",
        "6537": "ason",
        "6538": "angled",
        "6539": "abella",
        "6540": "Sunny",
        "6541": "Quack",
        "6542": "Maggie",
        "6543": "Henry",
        "6544": "Car",
        "6545": "==",
        "6546": "Ġwhispers",
        "6547": "Ġvanilla",
        "6548": "Ġuntied",
        "6549": "Ġunp",
        "6550": "Ġtasks",
        "6551": "Ġsuffered",
        "6552": "Ġstays",
        "6553": "Ġstaring",
        "6554": "Ġsponge",
        "6555": "Ġsiblings",
        "6556": "Ġseesaw",
        "6557": "Ġscurried",
        "6558": "Ġsank",
        "6559": "Ġrepa",
        "6560": "Ġpretends",
        "6561": "Ġnoses",
        "6562": "Ġnests",
        "6563": "Ġnapkins",
        "6564": "Ġmovies",
        "6565": "Ġlettuce",
        "6566": "Ġleaning",
        "6567": "Ġlap",
        "6568": "Ġinterested",
        "6569": "Ġhusband",
        "6570": "Ġgrowls",
        "6571": "Ġgrows",
        "6572": "Ġgasp",
        "6573": "Ġgross",
        "6574": "Ġfirefly",
        "6575": "Ġeveryday",
        "6576": "Ġdropping",
        "6577": "Ġdeserve",
        "6578": "Ġdent",
        "6579": "Ġcorners",
        "6580": "Ġcontro",
        "6581": "Ġcompletely",
        "6582": "Ġchuck",
        "6583": "Ġchop",
        "6584": "Ġcelebrating",
        "6585": "Ġcans",
        "6586": "Ġcustom",
        "6587": "Ġcent",
        "6588": "Ġbracelets",
        "6589": "Ġbodies",
        "6590": "Ġbeyond",
        "6591": "Ġbasement",
        "6592": "Ġavo",
        "6593": "Ġagrees",
        "6594": "Ġast",
        "6595": "ĠOlly",
        "6596": "ĠNothing",
        "6597": "ĠMouse",
        "6598": "ĠHowever",
        "6599": "ĠGina",
        "6600": "ĠFor",
        "6601": "ĠBirdie",
        "6602": "utty",
        "6603": "uzzy",
        "6604": "pite",
        "6605": "ounce",
        "6606": "ooed",
        "6607": "joyed",
        "6608": "itely",
        "6609": "iley",
        "6610": "eed",
        "6611": "awn",
        "6612": "Whee",
        "6613": "Very",
        "6614": "Those",
        "6615": "Susie",
        "6616": "Run",
        "6617": "Lola",
        "6618": "Doggy",
        "6619": "Chirpy",
        "6620": "Bunny",
        "6621": "Big",
        "6622": "?'",
        "6623": "Ġyum",
        "6624": "Ġwobbly",
        "6625": "Ġwishing",
        "6626": "Ġventured",
        "6627": "Ġvowed",
        "6628": "Ġtickled",
        "6629": "Ġtearing",
        "6630": "Ġsweets",
        "6631": "Ġsurface",
        "6632": "Ġsupplies",
        "6633": "Ġsquares",
        "6634": "Ġsquishy",
        "6635": "Ġspreading",
        "6636": "Ġspeaking",
        "6637": "Ġslam",
        "6638": "Ġsinger",
        "6639": "Ġsails",
        "6640": "Ġreplaced",
        "6641": "Ġrepaired",
        "6642": "Ġreads",
        "6643": "Ġranger",
        "6644": "Ġpumpkins",
        "6645": "Ġpracticing",
        "6646": "Ġpotion",
        "6647": "Ġpeeking",
        "6648": "Ġpatted",
        "6649": "Ġpartic",
        "6650": "Ġmerry",
        "6651": "Ġlosing",
        "6652": "Ġkeys",
        "6653": "Ġhowever",
        "6654": "Ġfact",
        "6655": "Ġdots",
        "6656": "Ġdollar",
        "6657": "Ġconfident",
        "6658": "Ġbravery",
        "6659": "Ġbatteries",
        "6660": "Ġbackwards",
        "6661": "Ġaccomplish",
        "6662": "ĠWhist",
        "6663": "ĠWink",
        "6664": "ĠTwinkle",
        "6665": "ĠSofia",
        "6666": "ĠPup",
        "6667": "ĠPine",
        "6668": "ĠPam",
        "6669": "ĠOur",
        "6670": "ĠNice",
        "6671": "ĠMix",
        "6672": "ĠJulie",
        "6673": "ĠJolly",
        "6674": "ĠHorsy",
        "6675": "ĠEx",
        "6676": "ĠCrab",
        "6677": "ĠCow",
        "6678": "ĠĊĠ",
        "6679": "usted",
        "6680": "order",
        "6681": "ivi",
        "6682": "fly",
        "6683": "father",
        "6684": "eal",
        "6685": "ctions",
        "6686": "cl",
        "6687": "Yummy",
        "6688": "Spike",
        "6689": "Some",
        "6690": "Ruby",
        "6691": "Pipp",
        "6692": "Mine",
        "6693": "Lulu",
        "6694": "Le",
        "6695": "Great",
        "6696": "Fine",
        "6697": "?\",",
        "6698": "Ġworkers",
        "6699": "Ġwires",
        "6700": "Ġwandering",
        "6701": "Ġuses",
        "6702": "Ġunpacked",
        "6703": "Ġtwinkling",
        "6704": "Ġstudent",
        "6705": "Ġstroked",
        "6706": "Ġsteady",
        "6707": "Ġstem",
        "6708": "Ġstain",
        "6709": "Ġsprang",
        "6710": "Ġsofter",
        "6711": "Ġsnowmen",
        "6712": "Ġshorts",
        "6713": "Ġscratches",
        "6714": "Ġsatis",
        "6715": "Ġrotting",
        "6716": "Ġrolls",
        "6717": "Ġroses",
        "6718": "Ġripe",
        "6719": "Ġrefreshed",
        "6720": "Ġreflection",
        "6721": "Ġrisk",
        "6722": "Ġpouring",
        "6723": "Ġposter",
        "6724": "Ġplayers",
        "6725": "Ġplanning",
        "6726": "Ġpaddle",
        "6727": "Ġpadd",
        "6728": "Ġpec",
        "6729": "Ġoutdo",
        "6730": "Ġnecklaces",
        "6731": "Ġni",
        "6732": "Ġmommies",
        "6733": "Ġminerals",
        "6734": "Ġmarked",
        "6735": "Ġlighter",
        "6736": "Ġknees",
        "6737": "Ġguests",
        "6738": "Ġgrip",
        "6739": "Ġfootsteps",
        "6740": "Ġflames",
        "6741": "Ġfirefighters",
        "6742": "Ġfilling",
        "6743": "Ġentrance",
        "6744": "Ġentire",
        "6745": "Ġdolphins",
        "6746": "Ġdentist",
        "6747": "Ġdecorating",
        "6748": "Ġdeal",
        "6749": "Ġcounts",
        "6750": "Ġcompetition",
        "6751": "Ġcomforted",
        "6752": "Ġchefs",
        "6753": "Ġchoo",
        "6754": "Ġcalmed",
        "6755": "Ġaside",
        "6756": "Ġarrows",
        "6757": "ĠWithout",
        "6758": "ĠSuzie",
        "6759": "ĠSorry",
        "6760": "ĠSl",
        "6761": "ĠPaws",
        "6762": "ĠOl",
        "6763": "ĠNick",
        "6764": "ĠMonster",
        "6765": "ĠFit",
        "6766": "ĠEnjoy",
        "6767": "ĠBirthday",
        "6768": "ĠBiggie",
        "6769": "zes",
        "6770": "xie",
        "6771": "vroom",
        "6772": "umbling",
        "6773": "uri",
        "6774": "sty",
        "6775": "sequ",
        "6776": "sequence",
        "6777": "rixie",
        "6778": "oline",
        "6779": "ledge",
        "6780": "iles",
        "6781": "hausted",
        "6782": "ercy",
        "6783": "ently",
        "6784": "ela",
        "6785": "brush",
        "6786": "aye",
        "6787": "ampoline",
        "6788": "alph",
        "6789": "Zoom",
        "6790": "Take",
        "6791": "Steve",
        "6792": "Sn",
        "6793": "Roar",
        "6794": "Out",
        "6795": "Mike",
        "6796": "Luckily",
        "6797": "Lizzy",
        "6798": "Katie",
        "6799": "Get",
        "6800": "Follow",
        "6801": "Ellie",
        "6802": "Dolly",
        "6803": "Bear",
        "6804": "Annie",
        "6805": "Ġwinked",
        "6806": "Ġwatering",
        "6807": "Ġwaiter",
        "6808": "Ġwow",
        "6809": "Ġtrampoline",
        "6810": "Ġtowels",
        "6811": "Ġtouches",
        "6812": "Ġthird",
        "6813": "Ġtiss",
        "6814": "Ġtangled",
        "6815": "Ġsurfing",
        "6816": "Ġsupported",
        "6817": "Ġstrongest",
        "6818": "Ġsteer",
        "6819": "Ġstool",
        "6820": "Ġsingle",
        "6821": "Ġsigned",
        "6822": "Ġshovels",
        "6823": "Ġshelves",
        "6824": "Ġseeker",
        "6825": "Ġrespons",
        "6826": "Ġremembering",
        "6827": "Ġrelief",
        "6828": "Ġrecorder",
        "6829": "Ġrising",
        "6830": "Ġprayer",
        "6831": "Ġpiggy",
        "6832": "Ġperformed",
        "6833": "Ġpastries",
        "6834": "Ġpassing",
        "6835": "Ġoverjoyed",
        "6836": "Ġoutdoors",
        "6837": "Ġopp",
        "6838": "Ġnotes",
        "6839": "Ġmood",
        "6840": "Ġlollipops",
        "6841": "Ġlicking",
        "6842": "Ġleast",
        "6843": "Ġknowledge",
        "6844": "Ġincluded",
        "6845": "Ġhider",
        "6846": "Ġheav",
        "6847": "Ġflavor",
        "6848": "Ġflapping",
        "6849": "Ġelbow",
        "6850": "Ġdrums",
        "6851": "Ġdesert",
        "6852": "Ġconsequence",
        "6853": "Ġconn",
        "6854": "Ġcloses",
        "6855": "Ġchuckled",
        "6856": "Ġcheeks",
        "6857": "Ġchat",
        "6858": "Ġburns",
        "6859": "Ġbegin",
        "6860": "Ġbeam",
        "6861": "Ġbathing",
        "6862": "Ġbunch",
        "6863": "ĠZee",
        "6864": "ĠYawn",
        "6865": "ĠTweetie",
        "6866": "ĠStella",
        "6867": "ĠSw",
        "6868": "ĠPu",
        "6869": "ĠJojo",
        "6870": "ĠJeff",
        "6871": "ĠHur",
        "6872": "ĠGoodbye",
        "6873": "ĠDizzy",
        "6874": "ĠBrian",
        "6875": "ĠBook",
        "6876": "ĠAnne",
        "6877": "ĠAunt",
        "6878": "ĠAbigail",
        "6879": "ĠĠ",
        "6880": "urtles",
        "6881": "urious",
        "6882": "ths",
        "6883": "rrr",
        "6884": "romise",
        "6885": "ossible",
        "6886": "no",
        "6887": "isions",
        "6888": "inny",
        "6889": "icha",
        "6890": "ichael",
        "6891": "fall",
        "6892": "een",
        "6893": "bert",
        "6894": "autious",
        "6895": "Rose",
        "6896": "Penny",
        "6897": "May",
        "6898": "Jump",
        "6899": "Harry",
        "6900": "Danny",
        "6901": "Ġwipes",
        "6902": "Ġwhistles",
        "6903": "Ġtwirling",
        "6904": "Ġtoaster",
        "6905": "Ġthorn",
        "6906": "Ġtables",
        "6907": "Ġturtles",
        "6908": "Ġswooped",
        "6909": "Ġswords",
        "6910": "Ġsurroundings",
        "6911": "Ġstew",
        "6912": "Ġsqueaked",
        "6913": "Ġspat",
        "6914": "Ġsneezing",
        "6915": "Ġships",
        "6916": "Ġsewed",
        "6917": "Ġsale",
        "6918": "Ġrocked",
        "6919": "Ġrains",
        "6920": "Ġrusty",
        "6921": "Ġrumble",
        "6922": "Ġprayers",
        "6923": "Ġparticular",
        "6924": "Ġornaments",
        "6925": "Ġmushrooms",
        "6926": "Ġminded",
        "6927": "Ġmatters",
        "6928": "Ġmachines",
        "6929": "Ġloading",
        "6930": "Ġkittens",
        "6931": "Ġjoining",
        "6932": "Ġintroduced",
        "6933": "Ġinstrum",
        "6934": "Ġimpossible",
        "6935": "Ġhumans",
        "6936": "Ġhesitated",
        "6937": "Ġforgiven",
        "6938": "Ġfits",
        "6939": "Ġfairies",
        "6940": "Ġexhausted",
        "6941": "Ġends",
        "6942": "Ġdecisions",
        "6943": "Ġdarkness",
        "6944": "Ġdarling",
        "6945": "Ġdancers",
        "6946": "Ġcousin",
        "6947": "Ġcontrol",
        "6948": "Ġconsequences",
        "6949": "Ġbru",
        "6950": "Ġblown",
        "6951": "Ġbaths",
        "6952": "Ġbars",
        "6953": "Ġbackpacks",
        "6954": "Ġadding",
        "6955": "Ġachieve",
        "6956": "Ġaimed",
        "6957": "Ġaff",
        "6958": "ĠZiggy",
        "6959": "ĠVivi",
        "6960": "ĠSofty",
        "6961": "ĠSc",
        "6962": "ĠReg",
        "6963": "ĠPh",
        "6964": "ĠOxy",
        "6965": "ĠNutty",
        "6966": "ĠLau",
        "6967": "ĠKaylee",
        "6968": "ĠJones",
        "6969": "ĠJanie",
        "6970": "ĠJamie",
        "6971": "ĠHurricane",
        "6972": "ĠFido",
        "6973": "ĠBeth",
        "6974": "ĠBelle",
        "6975": "Ġ10",
        "6976": "Ġicing",
        "6977": "you",
        "6978": "ters",
        "6979": "sm",
        "6980": "shing",
        "6981": "oke",
        "6982": "ody",
        "6983": "ndy",
        "6984": "neath",
        "6985": "lle",
        "6986": "hi",
        "6987": "gers",
        "6988": "ept",
        "6989": "eese",
        "6990": "dding",
        "6991": "chy",
        "6992": "ces",
        "6993": "cited",
        "6994": "cie",
        "6995": "alloween",
        "6996": "ading",
        "6997": "ades",
        "6998": "abel",
        "6999": "Grace",
        "7000": "Co",
        "7001": "Beep",
        "7002": "Bet",
        "7003": "Baby",
        "7004": "Alex",
        "7005": "Ġyourselves",
        "7006": "Ġwrist",
        "7007": "Ġwee",
        "7008": "Ġwakes",
        "7009": "Ġuns",
        "7010": "Ġund",
        "7011": "Ġtwisting",
        "7012": "Ġtighter",
        "7013": "Ġtested",
        "7014": "Ġtalents",
        "7015": "Ġswimmer",
        "7016": "Ġstung",
        "7017": "Ġstumble",
        "7018": "Ġsparks",
        "7019": "Ġslowed",
        "7020": "Ġslammed",
        "7021": "Ġskirts",
        "7022": "Ġsewing",
        "7023": "Ġsalty",
        "7024": "Ġrobber",
        "7025": "Ġregretted",
        "7026": "Ġprick",
        "7027": "Ġnodding",
        "7028": "Ġneare",
        "7029": "Ġnuzz",
        "7030": "Ġmesmer",
        "7031": "Ġloops",
        "7032": "Ġlending",
        "7033": "Ġjackets",
        "7034": "Ġheavier",
        "7035": "Ġhealth",
        "7036": "Ġheading",
        "7037": "Ġguide",
        "7038": "Ġgrandfather",
        "7039": "Ġgracefully",
        "7040": "Ġgobbled",
        "7041": "Ġghosts",
        "7042": "Ġgoo",
        "7043": "Ġgeese",
        "7044": "Ġfrowning",
        "7045": "Ġforks",
        "7046": "Ġforgets",
        "7047": "Ġfever",
        "7048": "Ġfart",
        "7049": "Ġerase",
        "7050": "Ġdoctors",
        "7051": "Ġdirections",
        "7052": "Ġdetermination",
        "7053": "Ġcurly",
        "7054": "Ġcrumb",
        "7055": "Ġclowns",
        "7056": "Ġcarts",
        "7057": "Ġbumps",
        "7058": "Ġangels",
        "7059": "Ġaloud",
        "7060": "ĠWo",
        "7061": "ĠToot",
        "7062": "ĠThose",
        "7063": "ĠToys",
        "7064": "ĠSpirit",
        "7065": "ĠShiver",
        "7066": "ĠSadly",
        "7067": "ĠRudy",
        "7068": "ĠPink",
        "7069": "ĠOther",
        "7070": "ĠMill",
        "7071": "ĠMild",
        "7072": "ĠMam",
        "7073": "ĠLiam",
        "7074": "ĠJennie",
        "7075": "ĠJacky",
        "7076": "ĠJu",
        "7077": "ĠFaye",
        "7078": "ĠDina",
        "7079": "ronaut",
        "7080": "reverse",
        "7081": "oosh",
        "7082": "iversity",
        "7083": "its",
        "7084": "iggles",
        "7085": "iel",
        "7086": "Vroom",
        "7087": "Shrink",
        "7088": "Sad",
        "7089": "Lina",
        "7090": "Kim",
        "7091": "Keep",
        "7092": "For",
        "7093": "Even",
        "7094": "Elly",
        "7095": "...",
        "7096": ".'\"",
        "7097": "--",
        "7098": "Ġyielded",
        "7099": "Ġwarmer",
        "7100": "Ġvideos",
        "7101": "Ġunderneath",
        "7102": "Ġtweet",
        "7103": "Ġtissue",
        "7104": "Ġswitched",
        "7105": "Ġsweaty",
        "7106": "Ġswept",
        "7107": "Ġsunscreen",
        "7108": "Ġstroll",
        "7109": "Ġsolut",
        "7110": "Ġsnuck",
        "7111": "Ġslipping",
        "7112": "Ġskunk",
        "7113": "Ġself",
        "7114": "Ġsy",
        "7115": "Ġruining",
        "7116": "Ġrubs",
        "7117": "Ġrows",
        "7118": "Ġpos",
        "7119": "Ġpleaded",
        "7120": "Ġperforming",
        "7121": "Ġpecked",
        "7122": "Ġpaintbrush",
        "7123": "Ġoutf",
        "7124": "Ġobjects",
        "7125": "Ġmodels",
        "7126": "Ġmagpie",
        "7127": "Ġmater",
        "7128": "Ġloses",
        "7129": "Ġlies",
        "7130": "Ġleap",
        "7131": "Ġinsects",
        "7132": "Ġhopeful",
        "7133": "Ġhonesty",
        "7134": "Ġhides",
        "7135": "Ġglued",
        "7136": "Ġfrowns",
        "7137": "Ġfleas",
        "7138": "Ġfeast",
        "7139": "Ġfarthest",
        "7140": "Ġev",
        "7141": "Ġdonkey",
        "7142": "Ġdollhouse",
        "7143": "Ġdisob",
        "7144": "Ġden",
        "7145": "Ġcustomer",
        "7146": "Ġcrumbs",
        "7147": "Ġcountryside",
        "7148": "Ġcombed",
        "7149": "Ġcobwebs",
        "7150": "Ġcor",
        "7151": "Ġcautious",
        "7152": "Ġbreathed",
        "7153": "Ġbadge",
        "7154": "Ġbun",
        "7155": "Ġbumpy",
        "7156": "Ġavoid",
        "7157": "Ġastronaut",
        "7158": "Ġannoyed",
        "7159": "Ġamong",
        "7160": "Ġactive",
        "7161": "ĠZero",
        "7162": "ĠTrust",
        "7163": "ĠThanks",
        "7164": "ĠTry",
        "7165": "ĠTippy",
        "7166": "ĠTe",
        "7167": "ĠSuki",
        "7168": "ĠStarry",
        "7169": "ĠSadie",
        "7170": "ĠSe",
        "7171": "ĠMatch",
        "7172": "ĠLina",
        "7173": "ĠJon",
        "7174": "ĠFrosty",
        "7175": "ĠFle",
        "7176": "ĠDidi",
        "7177": "ĠCro",
        "7178": "uren",
        "7179": "ulpture",
        "7180": "rup",
        "7181": "rops",
        "7182": "rin",
        "7183": "piece",
        "7184": "oring",
        "7185": "llen",
        "7186": "iolet",
        "7187": "indrops",
        "7188": "ilo",
        "7189": "igers",
        "7190": "elia",
        "7191": "ddie",
        "7192": "cept",
        "7193": "cc",
        "7194": "bbie",
        "7195": "arac",
        "7196": "ans",
        "7197": "aned",
        "7198": "addie",
        "7199": "auren",
        "7200": "Pippin",
        "7201": "Put",
        "7202": "Lena",
        "7203": "Gina",
        "7204": "Clara",
        "7205": "Che",
        "7206": "Betty",
        "7207": "Buzzy",
        "7208": "Boys",
        "7209": "Bow",
        "7210": "Ġzooms",
        "7211": "Ġvisitors",
        "7212": "Ġunsure",
        "7213": "Ġunw",
        "7214": "Ġtrusting",
        "7215": "Ġtreehouse",
        "7216": "Ġtipto",
        "7217": "Ġtalented",
        "7218": "Ġtipped",
        "7219": "Ġtigers",
        "7220": "Ġstuffing",
        "7221": "Ġsqueezing",
        "7222": "Ġspits",
        "7223": "Ġslower",
        "7224": "Ġslither",
        "7225": "Ġshown",
        "7226": "Ġscrub",
        "7227": "Ġsculpture",
        "7228": "Ġscra",
        "7229": "Ġsway",
        "7230": "Ġsens",
        "7231": "Ġresponsible",
        "7232": "Ġreminds",
        "7233": "Ġrever",
        "7234": "Ġreason",
        "7235": "Ġrainy",
        "7236": "Ġraindrops",
        "7237": "Ġrather",
        "7238": "Ġpurr",
        "7239": "Ġprinting",
        "7240": "Ġprickly",
        "7241": "Ġprevented",
        "7242": "Ġplanting",
        "7243": "Ġplain",
        "7244": "Ġocc",
        "7245": "Ġmateri",
        "7246": "Ġmasterpiece",
        "7247": "Ġmarkers",
        "7248": "Ġmunch",
        "7249": "Ġloudest",
        "7250": "Ġleads",
        "7251": "Ġknocking",
        "7252": "Ġjoins",
        "7253": "Ġincluding",
        "7254": "Ġimagining",
        "7255": "Ġignoring",
        "7256": "Ġhalves",
        "7257": "Ġgazing",
        "7258": "Ġflight",
        "7259": "Ġfans",
        "7260": "Ġearn",
        "7261": "Ġdragonfly",
        "7262": "Ġdod",
        "7263": "Ġdesigned",
        "7264": "Ġdef",
        "7265": "Ġdamage",
        "7266": "Ġcuriously",
        "7267": "Ġcreams",
        "7268": "Ġcharac",
        "7269": "Ġcash",
        "7270": "Ġbuying",
        "7271": "Ġblinking",
        "7272": "Ġbacked",
        "7273": "Ġashes",
        "7274": "Ġanger",
        "7275": "Ġage",
        "7276": "Ġafterwards",
        "7277": "Ġadults",
        "7278": "Ġache",
        "7279": "Ġaud",
        "7280": "ĠWhistle",
        "7281": "ĠWiggles",
        "7282": "ĠTam",
        "7283": "ĠPercy",
        "7284": "ĠPen",
        "7285": "ĠMegan",
        "7286": "ĠMother",
        "7287": "ĠMint",
        "7288": "ĠListen",
        "7289": "ĠLaser",
        "7290": "ĠHold",
        "7291": "ĠHalloween",
        "7292": "ĠDavey",
        "7293": "ĠDay",
        "7294": "ĠChick",
        "7295": "ĠCandy",
        "7296": "ĠBally",
        "7297": "ĠBall",
        "7298": "ĠBaa",
        "7299": "ĠAlong",
        "7300": "ĠAdam",
        "7301": "wise",
        "7302": "using",
        "7303": "uno",
        "7304": "umph",
        "7305": "uggles",
        "7306": "uing",
        "7307": "ude",
        "7308": "pecting",
        "7309": "pit",
        "7310": "osite",
        "7311": "ohny",
        "7312": "obody",
        "7313": "laying",
        "7314": "len",
        "7315": "itude",
        "7316": "ition",
        "7317": "itches",
        "7318": "issa",
        "7319": "ira",
        "7320": "inda",
        "7321": "iliar",
        "7322": "found",
        "7323": "endy",
        "7324": "ching",
        "7325": "ceries",
        "7326": "aren",
        "7327": "ampion",
        "7328": "amiliar",
        "7329": "aled",
        "7330": "achel",
        "7331": "Under",
        "7332": "Tina",
        "7333": "Suzy",
        "7334": "Pat",
        "7335": "Pandy",
        "7336": "Kate",
        "7337": "Joey",
        "7338": "Julie",
        "7339": "Jazz",
        "7340": "Hurry",
        "7341": "Fro",
        "7342": "David",
        "7343": "Dan",
        "7344": "Cindy",
        "7345": "Always",
        "7346": "'.\"",
        "7347": "!âĢĿ.",
        "7348": "Ġwounds",
        "7349": "Ġwobbled",
        "7350": "Ġwiping",
        "7351": "Ġwealth",
        "7352": "Ġunwra",
        "7353": "Ġunfamiliar",
        "7354": "Ġtwists",
        "7355": "Ġtwinkled",
        "7356": "Ġtwice",
        "7357": "Ġtravelled",
        "7358": "Ġtossed",
        "7359": "Ġtires",
        "7360": "Ġtemper",
        "7361": "Ġtasting",
        "7362": "Ġtalks",
        "7363": "Ġting",
        "7364": "Ġtin",
        "7365": "Ġtid",
        "7366": "Ġsurprising",
        "7367": "Ġsurfboard",
        "7368": "Ġstopping",
        "7369": "Ġstolen",
        "7370": "Ġsource",
        "7371": "Ġsolution",
        "7372": "Ġsolving",
        "7373": "Ġsoaking",
        "7374": "Ġsatisfied",
        "7375": "Ġsill",
        "7376": "Ġrubbing",
        "7377": "Ġreversed",
        "7378": "Ġreminding",
        "7379": "Ġrecommended",
        "7380": "Ġrails",
        "7381": "Ġpresses",
        "7382": "Ġpleasure",
        "7383": "Ġplucked",
        "7384": "Ġpapa",
        "7385": "Ġpaddled",
        "7386": "Ġoysters",
        "7387": "Ġovercome",
        "7388": "Ġopposite",
        "7389": "Ġoccas",
        "7390": "Ġnearest",
        "7391": "Ġmooed",
        "7392": "Ġmiles",
        "7393": "Ġmaker",
        "7394": "Ġlifting",
        "7395": "Ġlower",
        "7396": "Ġjourneys",
        "7397": "Ġindeed",
        "7398": "Ġinsp",
        "7399": "Ġgroceries",
        "7400": "Ġform",
        "7401": "Ġfluttered",
        "7402": "Ġflipped",
        "7403": "Ġfirmly",
        "7404": "Ġfins",
        "7405": "Ġfreed",
        "7406": "Ġeverybody",
        "7407": "Ġevil",
        "7408": "Ġduckling",
        "7409": "Ġdrivers",
        "7410": "Ġcolored",
        "7411": "Ġcolder",
        "7412": "Ġcheers",
        "7413": "Ġchampion",
        "7414": "Ġcaterpillars",
        "7415": "Ġcamping",
        "7416": "Ġcott",
        "7417": "Ġbunnies",
        "7418": "Ġbuses",
        "7419": "Ġbrushing",
        "7420": "Ġbows",
        "7421": "Ġbottles",
        "7422": "Ġbehaviour",
        "7423": "Ġbandages",
        "7424": "Ġaudience",
        "7425": "Ġamount",
        "7426": "Ġadult",
        "7427": "Ġaccomplishment",
        "7428": "Ġabil",
        "7429": "ĠWoolly",
        "7430": "ĠWeapon",
        "7431": "ĠWake",
        "7432": "ĠUp",
        "7433": "ĠTrixie",
        "7434": "ĠTia",
        "7435": "ĠSnuggles",
        "7436": "ĠSnap",
        "7437": "ĠShake",
        "7438": "ĠOliver",
        "7439": "ĠNear",
        "7440": "ĠIndy",
        "7441": "ĠGracie",
        "7442": "ĠGray",
        "7443": "ĠElle",
        "7444": "ĠEd",
        "7445": "ĠBruno",
        "7446": "ĠBluey",
        "7447": "ĠBark",
        "7448": "what",
        "7449": "woo",
        "7450": "vers",
        "7451": "urr",
        "7452": "uess",
        "7453": "son",
        "7454": "ptop",
        "7455": "owny",
        "7456": "osen",
        "7457": "ngela",
        "7458": "lsa",
        "7459": "kend",
        "7460": "kelly",
        "7461": "itted",
        "7462": "ighing",
        "7463": "idey",
        "7464": "ici",
        "7465": "ibb",
        "7466": "ibbit",
        "7467": "hopper",
        "7468": "feree",
        "7469": "erm",
        "7470": "cky",
        "7471": "chievous",
        "7472": "cho",
        "7473": "cher",
        "7474": "but",
        "7475": "ashes",
        "7476": "amb",
        "7477": "allowed",
        "7478": "aling",
        "7479": "ably",
        "7480": "Thomas",
        "7481": "Toby",
        "7482": "Ribbit",
        "7483": "People",
        "7484": "Op",
        "7485": "Nick",
        "7486": "Liz",
        "7487": "Josh",
        "7488": "Jessie",
        "7489": "Guess",
        "7490": "Days",
        "7491": "Br",
        "7492": "Bill",
        "7493": "Bang",
        "7494": "Alright",
        "7495": "Afterwards",
        "7496": "Aunt",
        "7497": "Am",
        "7498": "Abby",
        "7499": "?!\"",
        "7500": "!âĢĻ",
        "7501": "Ġyounger",
        "7502": "Ġyelp",
        "7503": "Ġwritten",
        "7504": "Ġwithin",
        "7505": "Ġweekend",
        "7506": "Ġwasting",
        "7507": "Ġtubes",
        "7508": "Ġtroubles",
        "7509": "Ġtrembled",
        "7510": "Ġtops",
        "7511": "Ġthrown",
        "7512": "Ġtaped",
        "7513": "Ġtapping",
        "7514": "Ġty",
        "7515": "Ġswimsuit",
        "7516": "Ġswap",
        "7517": "Ġswallowed",
        "7518": "Ġstroke",
        "7519": "Ġstrips",
        "7520": "Ġsqueak",
        "7521": "Ġspeeding",
        "7522": "Ġspice",
        "7523": "Ġsniffing",
        "7524": "Ġsharks",
        "7525": "Ġseasons",
        "7526": "Ġscored",
        "7527": "Ġrobots",
        "7528": "Ġrobin",
        "7529": "Ġresults",
        "7530": "Ġrespected",
        "7531": "Ġrepeats",
        "7532": "Ġrepeating",
        "7533": "Ġreferee",
        "7534": "Ġraccoon",
        "7535": "Ġrays",
        "7536": "Ġpunishment",
        "7537": "Ġpouted",
        "7538": "Ġplayroom",
        "7539": "Ġpigeons",
        "7540": "Ġpeacefully",
        "7541": "Ġparted",
        "7542": "Ġpancakes",
        "7543": "Ġonward",
        "7544": "Ġonions",
        "7545": "Ġnewfound",
        "7546": "Ġneatly",
        "7547": "Ġmischievous",
        "7548": "Ġlifts",
        "7549": "Ġlaptop",
        "7550": "Ġlump",
        "7551": "Ġinspired",
        "7552": "Ġinches",
        "7553": "Ġhealing",
        "7554": "Ġguardian",
        "7555": "Ġgrasshopper",
        "7556": "Ġgoalie",
        "7557": "Ġgardener",
        "7558": "Ġfriendships",
        "7559": "Ġforgetting",
        "7560": "Ġforce",
        "7561": "Ġflown",
        "7562": "Ġflock",
        "7563": "Ġflip",
        "7564": "Ġfigured",
        "7565": "Ġfamiliar",
        "7566": "Ġexplorer",
        "7567": "Ġencourag",
        "7568": "Ġefforts",
        "7569": "Ġecho",
        "7570": "Ġease",
        "7571": "Ġdripping",
        "7572": "Ġdrifted",
        "7573": "Ġdecision",
        "7574": "Ġdump",
        "7575": "Ġcorre",
        "7576": "Ġcoloured",
        "7577": "Ġcond",
        "7578": "Ġcircus",
        "7579": "Ġchosen",
        "7580": "Ġchar",
        "7581": "Ġcashier",
        "7582": "Ġborrowed",
        "7583": "Ġbelts",
        "7584": "Ġbecomes",
        "7585": "Ġbanged",
        "7586": "Ġbacks",
        "7587": "Ġautomobiles",
        "7588": "Ġapologised",
        "7589": "Ġaction",
        "7590": "ĠYet",
        "7591": "ĠYell",
        "7592": "ĠWendy",
        "7593": "ĠWelcome",
        "7594": "ĠTwo",
        "7595": "ĠTank",
        "7596": "ĠShow",
        "7597": "ĠSkelly",
        "7598": "ĠRuff",
        "7599": "ĠRa",
        "7600": "ĠPoor",
        "7601": "ĠPin",
        "7602": "ĠMichael",
        "7603": "ĠKe",
        "7604": "ĠJackie",
        "7605": "ĠIsabella",
        "7606": "ĠHook",
        "7607": "ĠFish",
        "7608": "ĠExcited",
        "7609": "ĠDusty",
        "7610": "ĠCopper",
        "7611": "ĠCla",
        "7612": "ĠCally",
        "7613": "ĠBrad",
        "7614": "ĠAcorn",
        "7615": "Ġouch",
        "7616": "thur",
        "7617": "the",
        "7618": "sess",
        "7619": "sa",
        "7620": "rier",
        "7621": "rick",
        "7622": "rthur",
        "7623": "rily",
        "7624": "orky",
        "7625": "opes",
        "7626": "ollen",
        "7627": "mates",
        "7628": "match",
        "7629": "ji",
        "7630": "imm",
        "7631": "igning",
        "7632": "hog",
        "7633": "hive",
        "7634": "form",
        "7635": "espite",
        "7636": "ening",
        "7637": "cope",
        "7638": "atur",
        "7639": "armer",
        "7640": "antern",
        "7641": "acles",
        "7642": "aver",
        "7643": "Zara",
        "7644": "Try",
        "7645": "Soup",
        "7646": "Like",
        "7647": "Jon",
        "7648": "Jamie",
        "7649": "Hop",
        "7650": "Coco",
        "7651": "Bessie",
        "7652": "Bee",
        "7653": "Barry",
        "7654": "Ġwrapping",
        "7655": "Ġwrink",
        "7656": "Ġwinners",
        "7657": "Ġwilling",
        "7658": "Ġwhimp",
        "7659": "Ġweighing",
        "7660": "Ġweeds",
        "7661": "Ġwaking",
        "7662": "Ġtot",
        "7663": "Ġtiptoed",
        "7664": "Ġthorns",
        "7665": "Ġteapot",
        "7666": "Ġswollen",
        "7667": "Ġstitches",
        "7668": "Ġspoonful",
        "7669": "Ġspills",
        "7670": "Ġspices",
        "7671": "Ġsniffs",
        "7672": "Ġsmelling",
        "7673": "Ġsmashed",
        "7674": "Ġshaped",
        "7675": "Ġshady",
        "7676": "Ġsensation",
        "7677": "Ġsecure",
        "7678": "Ġscen",
        "7679": "Ġsandpit",
        "7680": "Ġrect",
        "7681": "Ġrats",
        "7682": "Ġrust",
        "7683": "Ġqueens",
        "7684": "Ġpurpose",
        "7685": "Ġpurrs",
        "7686": "Ġpokes",
        "7687": "Ġplayhouse",
        "7688": "Ġplot",
        "7689": "Ġpatches",
        "7690": "Ġpackages",
        "7691": "Ġnuzzled",
        "7692": "Ġneedles",
        "7693": "Ġnapped",
        "7694": "Ġmoonlight",
        "7695": "Ġmiller",
        "7696": "Ġmesses",
        "7697": "Ġlowered",
        "7698": "Ġlizards",
        "7699": "Ġlibrarian",
        "7700": "Ġlanguages",
        "7701": "Ġlent",
        "7702": "Ġlantern",
        "7703": "Ġlamb",
        "7704": "Ġknots",
        "7705": "Ġjoyful",
        "7706": "Ġinvitations",
        "7707": "Ġhedgehog",
        "7708": "Ġheight",
        "7709": "Ġhaircuts",
        "7710": "Ġhoo",
        "7711": "Ġguessing",
        "7712": "Ġgroaned",
        "7713": "Ġgrabbing",
        "7714": "Ġfooled",
        "7715": "Ġenthusiasm",
        "7716": "Ġdresser",
        "7717": "Ġdrawn",
        "7718": "Ġdisobey",
        "7719": "Ġdesigns",
        "7720": "Ġcrossing",
        "7721": "Ġcracker",
        "7722": "Ġcraft",
        "7723": "Ġconnected",
        "7724": "Ġcons",
        "7725": "Ġcosy",
        "7726": "Ġcoach",
        "7727": "Ġcleaner",
        "7728": "Ġcautiously",
        "7729": "Ġcaw",
        "7730": "Ġbruises",
        "7731": "Ġbreathing",
        "7732": "Ġbothering",
        "7733": "Ġbothered",
        "7734": "Ġbellies",
        "7735": "Ġbehavior",
        "7736": "Ġbeginning",
        "7737": "Ġbeehive",
        "7738": "Ġbully",
        "7739": "Ġarrives",
        "7740": "Ġaim",
        "7741": "ĠYellow",
        "7742": "ĠWoof",
        "7743": "ĠWilly",
        "7744": "ĠTime",
        "7745": "ĠSteppy",
        "7746": "ĠStret",
        "7747": "ĠSmoke",
        "7748": "ĠRia",
        "7749": "ĠPuppy",
        "7750": "ĠPurr",
        "7751": "ĠPizza",
        "7752": "ĠPill",
        "7753": "ĠMamma",
        "7754": "ĠLuckily",
        "7755": "ĠLion",
        "7756": "ĠKayla",
        "7757": "ĠJay",
        "7758": "ĠIsn",
        "7759": "ĠForky",
        "7760": "ĠClaire",
        "7761": "ĠCloud",
        "7762": "ĠChr",
        "7763": "ĠCha",
        "7764": "ĠCD",
        "7765": "ĠBloom",
        "7766": "ĠBi",
        "7767": "ĠAlthough",
        "7768": "ĠApp",
        "7769": "ĠAbbie",
        "7770": "Ġ2",
        "7771": "zoom",
        "7772": "zi",
        "7773": "yes",
        "7774": "ushroom",
        "7775": "urrender",
        "7776": "ummies",
        "7777": "ulf",
        "7778": "that",
        "7779": "tock",
        "7780": "seed",
        "7781": "river",
        "7782": "rie",
        "7783": "rig",
        "7784": "ppies",
        "7785": "orter",
        "7786": "orking",
        "7787": "onies",
        "7788": "omb",
        "7789": "ley",
        "7790": "ldy",
        "7791": "izon",
        "7792": "ivity",
        "7793": "initely",
        "7794": "immer",
        "7795": "illed",
        "7796": "ighty",
        "7797": "iddy",
        "7798": "iving",
        "7799": "iky",
        "7800": "ibbles",
        "7801": "fus",
        "7802": "ertain",
        "7803": "eling",
        "7804": "ears",
        "7805": "ezi",
        "7806": "byes",
        "7807": "beep",
        "7808": "ba",
        "7809": "aterpillar",
        "7810": "armen",
        "7811": "annah",
        "7812": "anet",
        "7813": "anced",
        "7814": "agic",
        "7815": "afy",
        "7816": "ailey",
        "7817": "Zip",
        "7818": "Which",
        "7819": "Sharing",
        "7820": "Ray",
        "7821": "Pip",
        "7822": "Pinky",
        "7823": "Marie",
        "7824": "Freddy",
        "7825": "By",
        "7826": "Brian",
        "7827": "Bounce",
        "7828": "Ġworrying",
        "7829": "Ġwobble",
        "7830": "Ġwisely",
        "7831": "Ġwhoosh",
        "7832": "Ġwept",
        "7833": "Ġwaterfall",
        "7834": "Ġwaded",
        "7835": "Ġwider",
        "7836": "Ġuniforms",
        "7837": "Ġtying",
        "7838": "Ġtummies",
        "7839": "Ġtumbled",
        "7840": "Ġsweaters",
        "7841": "Ġsweep",
        "7842": "Ġsuffering",
        "7843": "Ġstreamers",
        "7844": "Ġstorekeeper",
        "7845": "Ġstomp",
        "7846": "Ġstamped",
        "7847": "Ġsquaw",
        "7848": "Ġspringing",
        "7849": "Ġsniffled",
        "7850": "Ġslapping",
        "7851": "Ġshops",
        "7852": "Ġserv",
        "7853": "Ġscrews",
        "7854": "Ġscratching",
[...]
